de 64268
a 37400
să 31002
în 30980
o 23632
care 23082
la 20579
şi 20263
că 20172
un 17859
e 16970
pe 16565
este 15820
cu 15713
nu 14861
din 14378
și 14188
mai 14160
pentru 14111
am 13671
ce 13241
ul 12837
i 12073
ă 11776
ca 11584
se 11513
. 10655
in@@ 10353
at 10296
, 10157
i@@ 9151
ă. 8337
-- 8283
c@@ 8278
au 8097
sunt 8075
re@@ 7533
at@@ 7321
ii 7239
ele 7165
Şi 7055
în@@ 7004
are 6988
t@@ 6945
ă, 6936
e@@ 6925
in 6661
u@@ 6654
sa 6634
i, 6583
s@@ 6577
e. 6496
te 6369
i. 6323
al@@ 6240
an@@ 6223
ac@@ 6203
fost 6083
ar@@ 6010
p@@ 6009
o@@ 5995
ar 5983
de@@ 5892
al 5860
fi 5839
a. 5676
ţ@@ 5655
si 5477
v@@ 5356
despre 5279
a, 5271
or@@ 5256
ia 5223
ț@@ 5152
e, 5099
foarte 5093
Și 5053
ne 5046
st@@ 5010
a@@ 5005
l@@ 5003
con@@ 4974
z@@ 4936
ic@@ 4921
it@@ 4841
n@@ 4814
"@@ 4792
-@@ 4783
ş@@ 4729
asta 4707
va 4639
cum 4636
ea 4602
b@@ 4569
le 4542
C@@ 4465
ă@@ 4460
ie 4454
sau 4451
t 4445
ei 4387
Dar 4382
it 4334
când 4297
r@@ 4274
er@@ 4240
dacă 4146
f@@ 4125
ului 4119
ţi 4097
dar 4084
m@@ 4077
ur@@ 4060
area 4029
S@@ 4002
ul@@ 3981
ale 3970
ăm 3932
acest 3914
g@@ 3870
ș@@ 3843
cre@@ 3800
un@@ 3775
? 3762
uri 3755
im@@ 3642
ile 3579
on@@ 3564
te@@ 3543
Nu 3525
en@@ 3525
d@@ 3491
am@@ 3476
ți 3468
: 3444
pre@@ 3416
A@@ 3391
il@@ 3310
vă 3309
ate 3224
el@@ 3219
era 3199
pl@@ 3150
is@@ 3097
Am 3082
tr@@ 3080
ată 3061
u 3045
as@@ 3033
aceste 3010
doar 2997
face 2989
di@@ 2985
această 2982
M@@ 2943
ap@@ 2939
ne@@ 2894
mult 2890
ceea 2885
t. 2870
se@@ 2868
♫ 2864
ică 2797
ilor 2762
ie@@ 2755
ai 2753
poate 2727
ceva 2683
trebuie 2680
B@@ 2679
t, 2676
dintre 2673
per@@ 2622
ti@@ 2617
to@@ 2603
par@@ 2582
s 2566
h@@ 2548
co@@ 2539
ex@@ 2520
um@@ 2517
im 2486
În 2482
ro@@ 2473
P@@ 2472
mă 2460
ori 2444
chiar 2441
ma@@ 2424
d 2422
c 2398
et@@ 2392
ăr@@ 2382
toate 2375
- 2368
prin 2356
putea 2343
ân@@ 2341
car@@ 2324
iz@@ 2319
ce@@ 2292
om@@ 2286
ală 2266
pro@@ 2257
aţi 2257
ie. 2254
ol@@ 2251
cur@@ 2250
ând 2249
pot 2246
aț@@ 2183
ec@@ 2169
ad@@ 2148
T@@ 2140
oameni 2136
fie 2123
noi 2112
ăt@@ 2111
acum 2108
ist@@ 2105
Iar 2102
es@@ 2102
De 2093
te, 2090
aţ@@ 2086
av@@ 2072
s-a 2062
D@@ 2052
avem 2051
multe 2048
fel 2046
tre@@ 2039
ie, 2037
dis@@ 2027
E@@ 2027
Si 2027
ast@@ 2016
po@@ 2016
N@@ 2013
ani 1980
ica 1978
voi 1974
mare 1973
ic 1964
esc 1948
L@@ 1944
ut@@ 1940
unde 1938
putem 1937
lui 1921
ob@@ 1919
le@@ 1915
ice 1913
Este 1912
cu@@ 1907
ii, 1894
az@@ 1890
ab@@ 1880
ii. 1879
ează 1876
af@@ 1875
I@@ 1873
te. 1872
m 1870
sp@@ 1863
ter@@ 1861
l 1847
R@@ 1845
j@@ 1842
at. 1842
vor 1840
ul. 1838
ata 1836
F@@ 1835
du@@ 1829
fac@@ 1822
tul 1819
bun@@ 1816
lucru 1810
tot 1804
eu 1802
su@@ 1801
cred 1795
oamenii 1787
itatea 1768
elor 1765
an 1758
într-un 1750
no@@ 1742
cel 1741
V@@ 1739
lucr@@ 1738
Deci 1738
cl@@ 1736
ag@@ 1730
aici 1717
ent@@ 1716
cele 1716
el 1714
fac 1705
E 1704
ir@@ 1699
iar 1697
iei 1697
ită 1675
ta 1674
din@@ 1673
sim@@ 1673
for@@ 1670
iile 1670
com@@ 1663
ver@@ 1660
ați 1654
lu@@ 1652
fiecare 1647
ci@@ 1644
apoi 1644
mo@@ 1639
zi 1637
A 1637
min@@ 1631
num@@ 1629
ig@@ 1623
priv@@ 1622
est@@ 1621
u, 1618
cr@@ 1617
or 1616
făcut 1616
urile 1611
timp 1608
există 1601
ip@@ 1599
vo@@ 1599
că@@ 1592
lucruri 1588
1@@ 1584
col@@ 1583
io@@ 1582
str@@ 1565
mul@@ 1556
ut 1554
ţii 1553
mar@@ 1549
aceasta 1536
ul, 1530
itate 1528
rec@@ 1523
ven@@ 1519
avea 1517
difer@@ 1508
fapt 1508
us@@ 1501
abil@@ 1496
u. 1495
decât 1494
do@@ 1493
ant@@ 1490
întreb@@ 1490
Asta 1476
schimb@@ 1472
păr@@ 1467
cer@@ 1465
au@@ 1456
îl 1452
gr@@ 1448
ch@@ 1447
după 1439
tin@@ 1439
int@@ 1438
alt@@ 1436
tă 1434
asta. 1431
ci 1429
loc 1426
Dacă 1422
ge@@ 1420
două 1419
nu@@ 1418
spun@@ 1415
inter@@ 1414
atunci 1411
într-o 1410
br@@ 1405
are. 1403
ază 1402
aj@@ 1397
aşa 1396
ră@@ 1387
cul@@ 1380
at, 1378
prim@@ 1375
ve@@ 1371
facem 1368
cea 1365
ine 1364
mod 1360
z 1359
and 1351
până 1349
pu@@ 1349
Ei 1343
man@@ 1336
lumea 1335
ări 1332
parte 1332
." 1321
orul 1317
ului. 1315
îm@@ 1315
atât 1310
ea, 1307
ent 1307
er 1302
des@@ 1300
fer@@ 1297
ide@@ 1294
O@@ 1294
Aşa 1294
me@@ 1292
unul 1292
pă@@ 1286
2@@ 1281
imagin@@ 1276
nevoie 1265
mea 1264
op@@ 1259
cât 1259
spune 1258
alte 1256
bu@@ 1255
i-@@ 1255
vre@@ 1246
ea. 1246
pr@@ 1244
ții 1240
ez@@ 1237
tat@@ 1237
unui 1235
şti@@ 1234
că, 1222
ti 1222
G@@ 1212
Pentru 1209
început 1208
cei 1208
bine, 1206
lo@@ 1202
al. 1201
ui 1196
g 1194
una 1187
da 1185
iun@@ 1184
aş@@ 1184
ite 1182
or. 1179
cal@@ 1179
Ce 1177
viz@@ 1172
fr@@ 1170
y@@ 1167
vedea 1167
acesta 1166
H@@ 1159
În@@ 1158
os@@ 1156
.@@ 1155
avut 1154
ier@@ 1149
Acesta 1140
vom 1132
ști@@ 1125
y 1125
d, 1125
â@@ 1124
lum@@ 1121
spec@@ 1120
nici 1118
zi@@ 1117
3@@ 1115
sc@@ 1114
" 1112
unei 1111
trebui 1104
cap@@ 1103
tur@@ 1102
„@@ 1099
ară 1098
fil@@ 1093
oare 1090
gen@@ 1090
sin@@ 1088
dat 1087
cin@@ 1087
dur@@ 1080
w@@ 1080
spun 1079
peste 1078
al, 1076
Aceasta 1075
Sunt 1073
ion@@ 1072
da@@ 1069
iv@@ 1069
fapt, 1069
ici@@ 1066
îi 1066
ţi@@ 1066
fi@@ 1063
Deci, 1059
k@@ 1058
iul 1056
căr@@ 1056
orii 1055
prin@@ 1051
jo@@ 1048
ină 1048
iu 1044
em@@ 1039
em 1039
asta, 1037
O 1036
spus 1034
trans@@ 1034
trei 1033
it. 1032
d. 1032
are, 1030
lor 1027
constru@@ 1027
așa 1025
tă@@ 1025
fără 1024
mân@@ 1020
ace@@ 1019
iune 1018
ani, 1017
a? 1017
gre@@ 1014
ze 1008
J@@ 1006
câteva 1005
dat@@ 1005
ită@@ 1001
vi@@ 1001
ului, 999
comun@@ 998
itat@@ 993
ase 990
eg@@ 990
spre 988
if@@ 988
ele@@ 981
ire 980
prea 978
vin@@ 974
ani. 971
gener@@ 969
ib@@ 968
acea 967
mi@@ 966
şte 965
bine 965
TED 964
; 959
proiec@@ 958
suntem 952
fo@@ 951
Acum, 951
tu@@ 948
acolo 939
şti 939
pe@@ 937
erau 937
id@@ 937
ic. 936
or, 930
der@@ 929
por@@ 926
uit@@ 926
vreau 925
meu 924
astfel 916
ser@@ 915
mi 910
produ@@ 909
orice 907
! 900
ban@@ 900
-au 900
vie@@ 900
ţie 899
tră@@ 898
ţia 893
acest@@ 891
K@@ 891
tea 890
Așa 889
ască 888
ura 886
cel@@ 886
lucrurile 885
it, 882
so@@ 881
ei. 878
rea 878
ma 875
aș@@ 874
ing@@ 873
p 873
i? 871
4@@ 869
leg@@ 869
cân@@ 869
fem@@ 868
eze 865
mic@@ 864
ere 862
x@@ 857
toată 857
U@@ 856
ate, 856
lin@@ 855
scr@@ 853
destul 852
s. 851
altă 851
aproape 850
pt@@ 849
Un@@ 847
-am 846
is 842
... 842
ei, 841
enț@@ 838
ate. 834
asă 831
acel 831
5@@ 828
olog@@ 826
val@@ 821
oar@@ 820
sen@@ 819
fin@@ 818
medi@@ 816
asa 816
-a 815
re, 811
?" 811
ile. 810
dă 810
In@@ 808
cam 806
m-am 805
câ@@ 804
inţ@@ 804
alt 802
cit@@ 802
ific@@ 800
sun@@ 800
îmi 799
ţion@@ 799
tor 795
milioane 795
W@@ 794
iunea 793
atr@@ 793
tat 789
ot@@ 788
ști 787
aţie 787
sal@@ 785
irea 780
prima 778
lan@@ 777
ici 777
n 776
men@@ 774
econom@@ 774
rel@@ 773
dr@@ 773
cineva 770
ele. 769
intr@@ 767
nor@@ 765
Când 765
între 762
zon@@ 762
". 762
cat@@ 759
ind 759
Cum 758
ţi, 758
să@@ 758
tele 757
cor@@ 753
ei@@ 753
Acum 752
ara 750
pi@@ 750
încă 749
ia, 746
tiv@@ 744
înseamnă 744
viit@@ 744
ina 743
continu@@ 743
adevăr@@ 741
s, 741
cat 740
oric@@ 738
To@@ 738
9@@ 737
ic, 737
Se 737
ţă 736
ajut@@ 734
7@@ 733
dez@@ 732
aliz@@ 731
tehnolog@@ 730
cum@@ 729
ente 728
es 727
imp@@ 725
sol@@ 725
asupra 721
vrea 721
propr@@ 721
e: 719
ju@@ 717
ție 715
ilor. 715
interes@@ 715
pare 714
m, 713
Vă 710
as 709
uman@@ 706
-o 706
10 706
Po@@ 704
Cred 702
folos@@ 701
Talk 700
Subtitles 699
Transcript: 699
direc@@ 699
exist@@ 698
lume 697
văzut 697
dec@@ 696
ofer@@ 694
uz@@ 693
ăc@@ 693
e? 692
condu@@ 691
sec@@ 690
dic@@ 688
an, 687
ția 686
i-a 684
an. 682
pie@@ 682
nic@@ 682
ile, 681
5 680
De@@ 680
real@@ 680
me 679
Un 675
ală. 675
ării 673
ările 672
ibil@@ 671
minun@@ 671
sul 670
s-au 669
ten@@ 668
dor@@ 668
facă 668
numai 668
partea 668
tra@@ 668
a-@@ 667
mine 665
anim@@ 665
acele 665
ște 663
poţi 663
'@@ 662
expl@@ 660
afl@@ 659
iţi 659
importan@@ 658
sur@@ 658
daca 658
posibil@@ 657
ele, 657
informa@@ 656
ime 656
ăs@@ 655
sub@@ 655
ia. 654
ien@@ 653
fur@@ 652
aici. 652
vedem 652
Trebuie 651
on 649
cand 648
primul 647
aici, 646
arată 646
probabil 646
ultim@@ 645
pus 644
bo@@ 644
ică. 643
uri, 643
plan@@ 641
asemenea 641
încât 636
mat@@ 636
timpul 636
răspun@@ 635
m. 634
adevărat 634
tic@@ 633
ator@@ 633
acestea 633
ger@@ 631
La 631
apro@@ 631
.” 630
dată 630
ţa 630
noastre 629
natur@@ 629
vâr@@ 629
ajuns 628
eram 627
tip@@ 627
den@@ 626
încer@@ 625
ativ@@ 625
esc. 625
compan@@ 625
mil@@ 623
sc 623
vede@@ 623
inț@@ 622
enţ@@ 621
ra@@ 621
fotograf@@ 619
întâmplă 619
săr@@ 618
ilor, 618
famil@@ 616
ale. 616
apar@@ 615
ca@@ 614
reg@@ 614
studi@@ 614
dar@@ 613
aş 613
deoarece 611
om 610
Să 610
faci 609
pute@@ 609
mi-a 608
mele 607
sub 607
urm@@ 607
totul 607
anul 606
6@@ 606
puţin 605
obiec@@ 605
sus@@ 605
ură 604
țion@@ 603
semn@@ 602
adă 602
rez@@ 601
cep@@ 601
-i 601
aţia 600
rap@@ 598
venit 597
gem 597
ale, 597
plu@@ 596
de-a 595
ala 595
comp@@ 593
drept@@ 593
l-am 591
polit@@ 590
tip 589
ric@@ 589
desch@@ 588
prez@@ 588
ţi. 587
tor@@ 587
vă@@ 587
ți@@ 586
Mar@@ 586
ă? 583
Al@@ 582
ez 582
.000 582
person@@ 581
muz@@ 579
a: 578
nostru 578
sco@@ 577
mon@@ 577
regul@@ 576
caz@@ 575
spus, 575
prezent@@ 574
felul 574
între@@ 574
planet@@ 573
ică, 573
mult. 572
către 571
uș@@ 571
bin@@ 571
nou 570
3 569
noastră 568
utiliz@@ 567
cop@@ 567
mit@@ 567
ǎ 567
întâmpl@@ 566
”@@ 565
le-am 565
ţin@@ 565
mari 565
ain@@ 565
erea 564
fl@@ 564
cut@@ 562
iți 562
El 562
adu@@ 561
simplu 561
bun 560
stră@@ 560
celul@@ 560
ație 559
inc@@ 559
8@@ 558
să-l 558
o. 558
ştiinţ@@ 558
bat@@ 557
faptul 557
entul 556
re. 555
ur 555
tate 555
Do@@ 554
pas@@ 554
înt@@ 554
luat 553
puter@@ 553
medic@@ 553
sta 552
ată. 551
vorbesc 550
ine@@ 550
ală, 550
Eu 549
baz@@ 549
itul 548
abil 548
ati 548
înch@@ 546
vorba 546
och@@ 546
mag@@ 546
princip@@ 546
mer@@ 545
loc@@ 545
evolu@@ 545
soci@@ 545
activ@@ 543
uri. 543
iesc 542
devenit 542
vers@@ 541
ți, 541
înainte 540
os. 540
uş@@ 539
termin@@ 539
pun@@ 538
vine 538
ini 538
patru 537
20 537
gan@@ 536
univers@@ 536
efec@@ 533
ane 532
copii 532
Avem 531
locul 529
contr@@ 529
aţii 529
ator 528
tro@@ 527
fă@@ 527
ne-am 526
dezvolt@@ 526
chest@@ 525
be@@ 525
puteţi 524
50 524
up@@ 523
Cu 522
ru@@ 522
stat@@ 521
gu@@ 521
Au 521
ort@@ 520
seama 520
um 519
bol@@ 519
ran@@ 518
b 518
timp@@ 518
-ar 517
ial@@ 517
Ar@@ 516
vân@@ 516
ideea 515
să-@@ 515
4 514
es, 514
noastr@@ 512
pres@@ 512
,@@ 511
gă@@ 511
organiz@@ 511
pune 511
can@@ 511
i-vă 510
spir@@ 509
sistem@@ 509
persoan@@ 509
ice. 509
Z@@ 508
Con@@ 508
amin@@ 507
realiz@@ 507
făc@@ 506
tem@@ 506
bă@@ 506
nat@@ 505
cem 503
descoper@@ 503
măr@@ 502
dep@@ 502
fel@@ 502
iuni 501
eşte 500
doi 500
ice, 499
sch@@ 498
i-am 497
os 497
itate. 496
idee 494
precum 493
var@@ 492
ah@@ 492
trat@@ 492
important 491
ite. 490
jurul 490
tim@@ 490
creier@@ 490
poți 489
ută 489
îşi 489
alul 488
miş@@ 488
du-@@ 488
tura 487
fiz@@ 487
odată 486
Amer@@ 485
ță 485
acel@@ 485
-ul 484
Vreau 483
electr@@ 483
indi@@ 483
ant 482
plă@@ 482
proces@@ 482
ciu@@ 482
țin@@ 481
scur@@ 481
găs@@ 481
pozi@@ 480
and@@ 480
Aici 480
form@@ 479
centr@@ 478
ța 477
Şti@@ 477
dolari 476
povest@@ 475
astr@@ 475
% 475
ându-@@ 474
mod@@ 473
oc@@ 473
Există 472
antă 472
Ceea 472
observ@@ 471
Apoi 471
tiv 471
mor@@ 470
mun@@ 470
ge 470
tele@@ 470
ans@@ 469
cuno@@ 469
struc@@ 469
unele 468
situ@@ 468
tic 468
prieten@@ 467
toţi 467
acolo. 466
o, 466
Or@@ 466
gin@@ 466
căl@@ 465
ezi 465
lor. 465
profes@@ 465
cercet@@ 465
aceea 465
dau 465
eşti 464
200@@ 464
eri 463
pier@@ 463
ți. 462
sper@@ 462
exact 461
ăto@@ 461
imen@@ 460
publ@@ 460
il 458
acestei 458
popul@@ 458
oare. 458
putut 457
diferite 457
locu@@ 457
place 456
multă 456
pol@@ 456
tează 456
să-i 456
doua 456
Mul@@ 455
iar@@ 455
In 455
tel@@ 455
sistem 453
oper@@ 453
aș 453
limb@@ 453
supraf@@ 452
Ac@@ 451
ple@@ 450
ase@@ 450
ţe 450
tre 448
copiii 448
voastr@@ 448
oamenilor 448
iei. 447
modul 446
exista 445
funcţion@@ 445
6 445
grij@@ 445
vir@@ 445
eaz@@ 444
motiv@@ 444
An@@ 444
munc@@ 444
2 444
exper@@ 443
puțin 442
oz@@ 442
ǎ@@ 442
deja 440
materi@@ 440
Din 440
mel@@ 440
pan@@ 439
începu@@ 439
bine. 439
ech@@ 439
apă 439
auto@@ 438
consider@@ 438
asc@@ 437
mul 437
răsp@@ 437
deci 436
ord@@ 436
numit 435
afac@@ 435
partic@@ 435
a-i 435
ația 434
urilor 434
c, 434
bar@@ 434
căut@@ 433
Pe 433
potriv@@ 433
tie 432
ăl@@ 432
Pămân@@ 432
științ@@ 431
public@@ 431
acum, 431
viaţa 431
conec@@ 430
săn@@ 430
ben@@ 430
ată, 429
moment 429
industr@@ 429
aţion@@ 429
educ@@ 429
acee@@ 429
bur@@ 428
acestor 428
ince@@ 428
zi, 427
dul 427
anii 426
tar@@ 426
aveam 426
mulţi 426
experien@@ 426
corec@@ 426
ac 426
Î@@ 426
americ@@ 425
mic 425
vorb@@ 425
formă 425
Sp@@ 425
înţele@@ 425
adar, 425
cost@@ 425
mij@@ 424
alb@@ 424
perio@@ 424
og@@ 423
ar, 423
dezvol@@ 423
ora 423
exemplu, 423
bună 422
bl@@ 422
St@@ 421
id 420
dus 420
cept@@ 420
feric@@ 420
prac@@ 419
ze@@ 419
mur@@ 419
aproximativ 419
spaţ@@ 418
aza 418
echip@@ 417
s-ar 417
ridic@@ 417
tot@@ 417
prof@@ 416
os, 415
cam@@ 415
cinci 415
tal@@ 415
nimic 415
000 415
c. 414
ang@@ 414
model@@ 414
sa@@ 414
inv@@ 414
Prim@@ 413
fiind 412
Pro@@ 412
ment@@ 412
hr@@ 412
rest@@ 411
en 411
mu@@ 411
mii 410
ent, 410
învăţ@@ 410
forma 409
frum@@ 409
fe@@ 409
războ@@ 409
redu@@ 408
provo@@ 408
gră@@ 408
", 408
ar. 408
tec@@ 408
Africa 407
făcu@@ 407
niciodată 407
Su@@ 407
maș@@ 406
ada 406
iau 406
e-@@ 406
dea 406
bi@@ 406
distr@@ 406
oară 405
efici@@ 405
vorbe@@ 405
Afr@@ 405
lip@@ 403
pur 403
ător@@ 402
aşi 402
grup@@ 402
ita 402
înţel@@ 402
înce@@ 401
aut@@ 401
acestui 401
h 401
âr@@ 400
itate, 399
iti 399
mici 399
merge 399
ug@@ 399
func@@ 398
ații 398
emo@@ 397
repe@@ 397
proble@@ 397
control@@ 397
s-o 397
plic@@ 397
comport@@ 397
noi. 396
pt 396
miliarde 396
ini@@ 396
cunos@@ 396
socie@@ 396
ner@@ 395
icii 395
începe 395
30 395
gând@@ 395
bal@@ 395
20@@ 395
ite, 394
is, 393
zi. 393
simpl@@ 393
ţile 392
mom@@ 392
exemplu 391
care, 391
tex@@ 391
copil@@ 391
pic@@ 391
de, 391
oare, 391
corp@@ 391
k 390
dre@@ 390
guvern@@ 390
cet@@ 390
dific@@ 389
Ne@@ 389
poz@@ 389
glob@@ 388
ajunge 388
ent. 388
gândi@@ 388
ament@@ 388
vin 388
apăr@@ 388
program@@ 386
neces@@ 386
itu@@ 386
New 386
ascul@@ 385
vrut 385
complet 385
Acest 385
mare, 385
veţi 385
lun@@ 384
majoritatea 384
astă@@ 384
ghe@@ 384
problema 383
întâln@@ 382
jur@@ 382
serv@@ 382
Re@@ 382
uc@@ 382
da, 382
import@@ 382
cine 382
nişte 382
tii 382
invest@@ 381
stan@@ 381
arhitec@@ 381
săptămân@@ 381
tului 381
nouă 381
faț@@ 380
sul@@ 380
copi@@ 380
lume. 379
este, 379
arăt@@ 379
Aş@@ 379
7 378
face@@ 378
mis@@ 377
100 377
Era 376
arăta 376
Iată 376
bine@@ 376
vezi 376
Co@@ 376
sunte@@ 375
date 375
metr@@ 375
locuri 374
puteți 374
intelig@@ 374
creat 374
interesan@@ 374
igur@@ 373
sistemul 373
Pr@@ 373
întâmplat 372
întor@@ 372
lucre@@ 372
ă-@@ 372
dreap@@ 372
00 371
domen@@ 371
fel, 371
aur@@ 370
Le@@ 370
eri@@ 370
nou, 370
ale@@ 370
dom@@ 370
tit@@ 370
m-a 370
târzi@@ 369
lung@@ 369
Chiar 369
solu@@ 369
de. 369
ore 368
produc@@ 368
folose@@ 368
ceva. 368
ref@@ 368
dev@@ 367
cumpăr@@ 367
TED@@ 367
mers 367
icl@@ 367
pici@@ 366
probleme 366
el. 366
țe 365
mi-am 365
ion 365
problemă 365
tion@@ 365
etr@@ 365
die@@ 365
istor@@ 364
înde@@ 363
acum. 362
Ve@@ 362
mă@@ 362
măsură 361
sing@@ 361
pac@@ 361
Ro@@ 359
unii 358
trim@@ 358
nevo@@ 358
punct 357
jos 357
ak@@ 357
aj 357
ât 356
r 356
calcul@@ 356
abor@@ 356
ica. 356
zile 355
ferici@@ 355
arg@@ 355
une@@ 354
Mai 354
deven@@ 354
19@@ 354
şi, 354
Poate 354
ător 353
greu 353
log@@ 353
jumătate 353
extraordin@@ 353
amb@@ 353
noi, 352
mică 352
trebuit 352
mas@@ 352
ub@@ 352
amen@@ 351
acolo, 351
atul 350
crea 350
cultur@@ 350
implic@@ 348
iei, 348
rezolv@@ 348
dent 348
Acestea 347
ţine 347
acelaşi 347
har@@ 347
sar@@ 347
nou@@ 347
iam 347
cauza 347
vit@@ 346
poveste 346
iș@@ 346
Lu@@ 345
enta 345
Mo@@ 345
siguran@@ 345
pic 345
spus: 345
duce 344
văd 344
măs@@ 344
bog@@ 343
vol@@ 343
dolar@@ 343
mâ@@ 343
Ex@@ 343
dit@@ 343
am, 342
x 342
asta? 342
ica, 342
mei 341
toți 341
met@@ 341
acă 340
f 340
oraş@@ 340
dem 340
descoperit 340
ajul 340
interi@@ 340
Ch@@ 340
data 340
” 339
At@@ 339
auzit 338
matemat@@ 338
își 338
bune 338
trecut 338
posibil 337
consum@@ 337
facut 337
momentul 337
ij@@ 337
gânde@@ 336
dimens@@ 336
mulţum@@ 336
anum@@ 335
pove@@ 335
iu@@ 335
lor, 334
exem@@ 334
graf@@ 334
Putem 334
ach@@ 333
vedere 333
oamen@@ 333
mut@@ 333
crede@@ 332
eva 332
vech@@ 332
analiz@@ 332
anume 332
întreg@@ 332
ung@@ 332
Da, 331
pag@@ 331
arti@@ 331
ştiu 331
mulți 330
ţii. 330
ist 330
imagine 330
dintr-o 329
energie 329
frun@@ 329
zu@@ 329
ep@@ 328
y, 328
super@@ 328
arăt 328
ațion@@ 328
mes@@ 328
nimeni 328
pămân@@ 327
0@@ 327
secol@@ 327
mine, 327
invent@@ 326
li@@ 326
desig@@ 326
biolog@@ 326
complex@@ 326
lucruri. 325
alele 325
Dar, 325
dest@@ 325
Ști@@ 324
ine. 324
cul 324
fii 323
ocup@@ 323
întreaga 323
creş@@ 323
i: 323
pun 323
Aș@@ 323
el, 323
dore@@ 322
ătă@@ 322
const@@ 322
entă 322
computer@@ 321
ris@@ 320
ne-a 320
unor 320
Cre@@ 320
vide@@ 320
unc@@ 320
aleg@@ 319
lumii 319
persoană 319
împreună 319
apte 319
und@@ 319
ose@@ 318
ește 318
vei 318
sat@@ 318
Şi, 318
on, 317
rezultat@@ 317
perfec@@ 317
ară. 317
cut 317
putern@@ 316
Asa 316
gândit 315
son@@ 315
grup 315
urmă 315
ple 315
spaț@@ 315
căt@@ 314
clădir@@ 314
drum@@ 314
Pute@@ 314
st 314
eu@@ 313
put@@ 313
drag@@ 313
ima@@ 313
celor 312
folosim 312
ho@@ 312
ero@@ 312
scen@@ 311
of@@ 311
eil@@ 311
apa 311
zil@@ 311
mare. 311
asă. 310
imi 310
test@@ 310
mea, 310
defin@@ 310
sus 310
nu-i 309
angaj@@ 309
spune@@ 309
schimba 309
cir@@ 309
ace 308
au, 308
ari 308
deciz@@ 307
fab@@ 307
punc@@ 307
ore@@ 307
dif@@ 307
mult, 306
găsit 306
gândim 306
scris 306
da. 306
mea. 306
ani@@ 306
departe 306
folosi 305
aţă 305
ând, 305
tu 304
nivel 304
Er@@ 304
sl@@ 304
frumo@@ 303
lucru. 303
lăs@@ 303
nim@@ 303
relig@@ 303
puţ@@ 302
idei 302
înapoi 301
inclu@@ 301
cauz@@ 301
petre@@ 301
vreo 301
elor. 301
scu@@ 301
del@@ 301
curs 300
meto@@ 300
nostru@@ 300
ajun@@ 300
lec@@ 300
permite 299
tuturor 298
bor@@ 298
oameni. 298
proiect 298
totu@@ 298
dată. 297
bărb@@ 297
întâm@@ 297
vizu@@ 297
ni@@ 297
Car@@ 296
oarec@@ 296
ţele 296
ax@@ 296
mat 296
zic@@ 296
bani 295
ef@@ 295
agă 295
vrem 295
amentul 295
ian@@ 294
tare 294
fec@@ 294
vorbi 294
pozitiv@@ 294
azi 294
lumin@@ 294
hi@@ 294
niște 293
ităţi 293
spun, 292
enor@@ 292
înțele@@ 292
camer@@ 292
reprezintă 291
ave@@ 291
miș@@ 291
fiindcă 290
aveau 290
veți 289
tehnologie 289
dele 289
iată 289
Va 289
lua 289
devine 289
dată, 288
energ@@ 288
ești 288
prom@@ 288
acor@@ 288
uimit@@ 288
Care 288
atat 288
același 287
mulțum@@ 287
iilor 287
compar@@ 287
punem 287
supravie@@ 287
singur 287
de-@@ 287
itor@@ 287
prote@@ 287
man 286
imb@@ 286
Oamenii 286
nec@@ 286
aspec@@ 286
Br@@ 286
san@@ 286
cuvin@@ 286
ati@@ 286
civ@@ 286
imedi@@ 285
proc@@ 285
act 285
9 285
aibă 285
ulu@@ 285
icul@@ 285
15 284
Ne 284
următo@@ 284
ol 284
Statele 284
După 284
finan@@ 284
ren@@ 284
tocmai 284
refer@@ 284
îţi 284
inov@@ 283
me. 283
dator@@ 283
ha@@ 283
concentr@@ 283
design@@ 282
8 282
pon@@ 282
Mă 282
respons@@ 282
igur, 282
orig@@ 282
colec@@ 282
adev@@ 282
Sau 282
funcțion@@ 281
î@@ 281
persoane 281
ține 281
scă@@ 281
oarele 281
faţă 281
lângă 280
bio@@ 280
anta 280
Îmi 280
ales 280
întoar@@ 280
tehnologia 280
ibr@@ 279
ibu@@ 279
Noi 279
încercat 279
tere 279
învăț@@ 279
[@@ 279
oraș@@ 278
Ha@@ 278
cale 278
zut 278
SU@@ 278
află 278
lungul 278
nucle@@ 278
net@@ 277
vest@@ 277
itor 277
transp@@ 277
fon@@ 277
adar 277
obic@@ 276
ev@@ 276
ca, 276
inspir@@ 276
vrei 276
ine, 276
arul 275
cant@@ 275
merg 275
doilea 275
iu, 275
turi 275
amp@@ 275
liber@@ 275
Ca 275
și, 274
apo@@ 274
asemenea, 274
cun@@ 274
descr@@ 274
carea 274
fiu 274
viața 274
folosit 273
câte 273
chim@@ 273
acoper@@ 273
petrol@@ 273
plăc@@ 272
Voi 272
vedeţi 272
10@@ 272
copil 272
cazul 272
sfârş@@ 272
iel@@ 272
ultimii 272
ces 272
ton@@ 271
pozit@@ 271
ară, 271
genul 271
ste 271
iment 271
seam@@ 271
atur@@ 271
ași 271
ule 271
Această 271
desen@@ 271
Ar 271
vorbit 270
şe@@ 270
ingin@@ 270
resur@@ 270
clu@@ 270
inst@@ 270
oameni, 270
erii 269
we@@ 269
ştim 269
vor@@ 269
osfer@@ 269
cerc@@ 269
stre@@ 269
i-au 269
zb@@ 268
maş@@ 268
fap@@ 268
folosesc 268
timp, 267
ete 267
interesant 267
subiec@@ 267
ier 267
moar@@ 267
oarea 267
viaţ@@ 267
Par@@ 266
et 266
aceşti 266
micro@@ 266
tine 266
timp. 266
model 266
em, 266
ziua 266
cau@@ 266
interac@@ 266
şco@@ 266
extrem 265
distru@@ 265
ost@@ 265
Ast@@ 265
Y@@ 265
at-o 264
mine. 264
cent@@ 264
astea 264
gro@@ 264
ampl@@ 264
ții. 264
porn@@ 264
Suntem 264
na 264
asi 264
apoi, 264
știu 263
ise 263
ute 263
dintr-un 263
Indi@@ 263
atorul 263
sel@@ 263
stare 263
uns 263
eaza 263
tură 262
ştiţi, 262
ită. 262
dit 261
primit 261
departe. 261
-l 261
Mulţum@@ 261
capac@@ 261
presu@@ 261
1 261
eia 261
er, 261
ştii 261
pră@@ 261
Toate 261
mec@@ 261
afec@@ 260
munca 260
adân@@ 260
ocean@@ 260
singur@@ 260
l-a 260
iş@@ 260
dere 259
t? 259
sute 259
Aceste 259
pla 259
ma, 259
decis 259
tia 259
carb@@ 258
Unul 258
scop@@ 258
compas@@ 258
baza 257
ox@@ 257
cere 257
iu. 257
dimine@@ 257
flu@@ 256
special 256
eie 256
petrec@@ 256
ceal@@ 256
înţeleg@@ 256
ament 256
următ@@ 255
ăm. 255
cuvân@@ 255
inten@@ 255
gl@@ 255
înain@@ 254
găse@@ 254
sigur 254
tri 254
respec@@ 254
curile 254
adă@@ 254
luni 254
0, 254
acela 253
ut-o 253
reprezent@@ 253
50@@ 253
vari@@ 252
găsi 252
scar@@ 252
cadr@@ 252
viol@@ 252
viaţă 252
vedeți 252
împotriva 252
iub@@ 252
Pă@@ 252
ama 252
instrum@@ 251
țile 251
oportun@@ 251
dră@@ 251
lic@@ 251
elem@@ 251
a." 251
zis 251
clim@@ 250
ort 250
M-am 250
acces@@ 250
40 250
construit 250
iune. 250
ã 250
mediul 249
opr@@ 249
fim 249
doc@@ 249
sex@@ 249
ori, 249
ajung@@ 249
Au@@ 249
ber@@ 248
înțel@@ 248
lupt@@ 248
inile 248
patr@@ 248
cancer@@ 248
dent@@ 248
ăsta 248
Mon@@ 247
ta. 247
capit@@ 247
auz@@ 247
ori@@ 247
surprin@@ 246
într-adevăr 246
vreme 246
nav@@ 246
atura 246
Ea 246
stâng@@ 246
stu@@ 246
sum@@ 245
limit@@ 245
mama 245
um, 245
rezul@@ 245
ă: 245
adun@@ 245
eti 245
gle@@ 245
molec@@ 245
decat 245
simt 244
etul 244
uităm 244
bil@@ 244
aţa 244
acol@@ 244
tab@@ 244
ma. 243
ţ 243
registr@@ 243
0 243
ăn@@ 243
aduce 243
încerc@@ 243
hot@@ 243
gândesc 243
bacter@@ 243
sută 243
ista 243
să-mi 242
influ@@ 242
iunile 242
abilitatea 242
omen@@ 242
ik@@ 242
ta, 242
sufer@@ 242
puterea 242
ană 241
noastre. 241
lume, 241
extin@@ 241
aştept@@ 241
atea 241
nă 241
tăm 241
urma 241
teri@@ 241
creierul 241
trecu@@ 241
chel@@ 240
ăst@@ 240
povestea 240
tehn@@ 240
nicio@@ 240
psih@@ 240
cerea 239
Astfel 239
mem@@ 239
urme@@ 239
treab@@ 239
atunc@@ 239
tum@@ 239
top@@ 238
aun@@ 238
sent@@ 238
încep 237
perspec@@ 237
iv 237
câştig@@ 237
întotdeauna 237
demo@@ 236
stă 236
mei@@ 236
aște@@ 236
er. 236
tif@@ 236
ana 236
unos@@ 235
cursul 235
noast@@ 235
Europ@@ 235
vorbim 235
știți, 235
credem 235
eu, 235
intreb@@ 235
gh@@ 234
împărtă@@ 234
măcar 234
arunc@@ 234
pa@@ 233
ativ 233
copac@@ 233
asă, 233
minute 233
enţa 233
meu, 233
elor, 233
asca 233
Daca 233
distan@@ 233
mulţ@@ 233
ometr@@ 232
neg@@ 232
derea 232
merg@@ 232
pui 232
incredibil@@ 232
spatele 232
crescut 232
uit 232
inta 232
sf@@ 231
numită 231
produce 231
reuş@@ 231
tipul 231
încep@@ 231
port@@ 231
ali 231
imea 231
iliz@@ 231
Al 230
emis@@ 230
obişnu@@ 230
iec@@ 230
Și, 230
țele 230
punctul 230
folosind 230
biro@@ 230
teor@@ 230
merge@@ 229
artic@@ 229
on. 229
sat 229
put 229
gân@@ 229
devin 229
intr-un 229
atie 229
ş 229
viață 228
ade 228
adus 228
spune, 228
ck@@ 228
iului 228
Astfel, 227
im. 227
torul 227
creș@@ 227
schimbat 227
cont@@ 227
oce@@ 227
știm 227
ţii, 227
esti 227
Dumnezeu 227
ind@@ 227
proces 227
aplic@@ 226
urmă, 226
As@@ 226
y. 226
em. 226
bătr@@ 226
intr-o 226
Pre@@ 226
pur@@ 226
– 226
ități 225
tit 225
' 225
problemele 225
trebuia 225
pana 225
format@@ 225
radi@@ 224
comer@@ 224
Des@@ 224
prob@@ 224
dupa 224
mereu 223
lucrat 223
vac@@ 223
călător@@ 223
încercăm 223
ească 223
00@@ 223
eviden@@ 223
mal 223
ări. 222
antr@@ 222
ătoare 222
intro@@ 222
60 222
progre@@ 222
recuno@@ 222
singură 222
Are 222
ung 222
loc. 222
tan@@ 222
numărul 222
aliment@@ 221
rele 221
iat 221
dege@@ 221
câţiva 221
ităţii 221
pierdu@@ 221
rămân@@ 221
us 220
detal@@ 220
studen@@ 220
me, 220
istr@@ 220
foarte, 220
explic@@ 220
anumite 220
''@@ 220
dove@@ 219
mergem 219
aţi. 219
-ai 219
robo@@ 219
înțeleg@@ 219
nicio 218
aer@@ 218
ada@@ 218
contin@@ 218
ază. 218
vitez@@ 218
post@@ 218
A, 218
râ@@ 217
curaj@@ 217
iti, 217
Ace@@ 217
abile 217
incredibil 217
tr-o 217
simţ@@ 217
galax@@ 217
st, 216
ţiile 216
problem@@ 216
rează 216
lumea. 216
legătură 216
si@@ 216
ența 215
stabil@@ 215
servici@@ 215
motivul 215
număr 215
ata. 215
dumne@@ 215
] 215
entele 215
rid@@ 215
Unite 214
combin@@ 214
local@@ 214
începem 214
in, 214
art@@ 214
tei 214
mal@@ 214
deasupra 214
Nor@@ 214
aminte@@ 214
aju@@ 213
icien@@ 213
fundament@@ 213
ing 213
membr@@ 213
ut. 213
iber@@ 213
istoria 213
uitat 213
grozav@@ 213
neur@@ 213
India 213
buc@@ 212
buni 212
constr@@ 212
iza 212
atâ@@ 212
abilă 212
ibil 212
numele 212
Însă 212
faţa 212
realizat 212
ceva, 212
Nu@@ 212
trece 212
propria 212
inge 212
veni 211
au. 211
mas 211
sigur@@ 211
crede 211
luăm 211
ajuta 211
”. 211
anz@@ 211
confer@@ 210
întâ@@ 210
asemăn@@ 210
ştia 210
tradi@@ 210
arcă 210
i." 210
volu@@ 210
poti 210
Fran@@ 210
succes@@ 209
nivelul 209
moder@@ 209
alitate 209
energia 209
terea 209
enţă 209
se. 209
ase, 209
calculat@@ 209
gra@@ 209
aţi, 209
argă 208
Com@@ 208
suc@@ 208
maşin@@ 208
minu@@ 208
îți 208
alta 208
No@@ 208
dăm 207
labor@@ 207
voi, 207
aveţi 207
tez@@ 207
absolut 207
suficient 207
reac@@ 207
lucrează 207
încre@@ 207
organis@@ 207
am. 207
care-@@ 207
iment@@ 206
acter@@ 206
enden@@ 205
fas@@ 205
adi@@ 205
depar@@ 205
experiment@@ 205
v 205
dou@@ 204
gal@@ 204
ief@@ 204
mobil@@ 204
h, 204
Dumne@@ 204
Internet@@ 204
uni@@ 204
jum@@ 203
format 203
ese 202
imit@@ 202
tiz@@ 202
ni 202
?” 201
ton 201
liter@@ 201
istă 201
elec@@ 201
la@@ 201
ov@@ 200
ge. 200
ster@@ 200
Tre@@ 199
nici@@ 199
vis@@ 199
ide 199
design 198
telefon@@ 198
fund@@ 198
stru@@ 197
age 197
199@@ 197
mit 197
divers@@ 197
speci@@ 197
oarece 197
son 197
Ur@@ 196
eria 195
lap@@ 195
Cop@@ 195
0. 194
trebu@@ 194
iste 194
imul@@ 194
X@@ 194
ase. 194
dem@@ 193
und 193
miliar@@ 193
tr-un 193
gol@@ 193
grat@@ 193
sem@@ 192
aib@@ 192
So@@ 191
plet@@ 191
institu@@ 191
e." 191
war@@ 191
erv@@ 190
poten@@ 189
fen@@ 189
ente. 189
las@@ 189
je@@ 189
eau 189
chin@@ 188
dir@@ 188
A. 187
Ad@@ 187
ț 186
rezol@@ 186
Univers@@ 186
se, 185
evi@@ 185
York@@ 185
demonstr@@ 185
global@@ 184
are@@ 184
ein@@ 184
18@@ 184
ens@@ 183
n, 183
fir@@ 183
Ge@@ 183
spit@@ 183
pet@@ 182
grab@@ 182
amente 182
itiv@@ 181
mier@@ 181
o-@@ 181
ad 181
zeu@@ 180
ape 180
bit@@ 179
învă@@ 178
organ@@ 178
12 178
in. 178
plat@@ 178
împreun@@ 178
Ima@@ 178
bom@@ 177
he@@ 177
uie 177
sti@@ 177
ill@@ 176
Bo@@ 176
entu@@ 176
gas@@ 176
HI@@ 175
sfâr@@ 175
atele 175
die 175
integr@@ 174
ograf@@ 174
ram@@ 174
ID@@ 173
Ob@@ 173
gar@@ 173
digit@@ 173
zer@@ 172
ado@@ 172
imente 172
anti@@ 172
erg@@ 171
explo@@ 171
sor@@ 171
Ma@@ 170
Col@@ 170
hal@@ 170
major@@ 170
besc 170
li 170
Chin@@ 170
imin@@ 170
is. 169
25 169
Sh@@ 168
ich@@ 168
niv@@ 168
her@@ 168
mie 168
200 168
fa@@ 168
puț@@ 167
oll@@ 167
," 167
erie 166
eleg@@ 166
ibl@@ 166
simul@@ 166
18 165
Bar@@ 165
țum@@ 164
ene 164
men 164
onom@@ 164
sit@@ 163
unde@@ 163
/@@ 163
DN@@ 163
don@@ 163
clă@@ 163
genet@@ 162
ta@@ 161
500 161
ș 161
Har@@ 161
ater@@ 160
Ş@@ 160
rit@@ 160
fun@@ 160
d-@@ 160
rech@@ 160
frag@@ 159
ste@@ 159
re 159
orie 159
ge, 159
lex@@ 159
iden@@ 159
iere 158
Bu@@ 158
pul@@ 158
11 157
ima 157
fantast@@ 157
tier@@ 157
B: 157
sil@@ 156
n. 156
der 156
tem 156
Brit@@ 156
sie 156
atom@@ 156
ir 155
viaț@@ 155
groz@@ 155
fal@@ 155
diag@@ 155
mente 154
Vre@@ 154
st. 154
en. 154
alter@@ 153
tig@@ 153
ell@@ 153
part@@ 152
ătate 152
%@@ 152
strateg@@ 152
CA: 152
qu@@ 152
nis@@ 152
Lon@@ 152
ână 151
gen 151
siv 151
pre 151
0% 151
!" 150
legăt@@ 150
aga 150
Se@@ 150
într-@@ 149
dro@@ 149
ua 149
sufici@@ 149
...@@ 148
ăr 147
es. 147
Gr@@ 147
gel@@ 147
be 147
Chris 146
eile 146
ick@@ 146
aşte@@ 146
all@@ 146
Per@@ 145
Ide@@ 145
edi@@ 145
spr@@ 144
David 143
prezin@@ 143
est 142
ins 142
he 142
V 141
van@@ 141
mus@@ 141
măn@@ 141
total 140
Dr@@ 140
dan@@ 139
ja 139
York 139
Sun@@ 138
fici@@ 138
umin@@ 138
g. 138
AS@@ 137
supr@@ 137
ip 137
ordin@@ 136
un, 136
Te@@ 136
China 136
absol@@ 135
ilea 135
uno@@ 135
prezintă 134
ologie 134
Num@@ 134
Proble@@ 133
mark@@ 133
"N@@ 133
Tim@@ 133
Fr@@ 133
nost@@ 133
80 132
treb@@ 132
ive 132
Mc@@ 132
ft@@ 131
Char@@ 130
El@@ 130
ămân@@ 130
For@@ 129
ative 129
Pau@@ 129
Richar@@ 129
g, 129
Min@@ 129
mir@@ 128
alis@@ 128
Gu@@ 128
ok@@ 128
tr-@@ 128
cev@@ 128
Jo@@ 127
prie@@ 127
Av@@ 127
ba@@ 127
N 127
entr@@ 127
"A@@ 127
gest@@ 126
ay@@ 126
en, 126
optim@@ 126
um. 126
totdeauna 126
ne, 125
sh@@ 125
ter 125
“@@ 125
198@@ 124
iva 124
ian 124
vidu@@ 124
duc@@ 123
tun@@ 123
100@@ 123
toar@@ 123
fie@@ 123
sten@@ 123
tran@@ 122
Man@@ 122
Priv@@ 122
Dar@@ 122
En@@ 122
Di@@ 121
end@@ 121
Bro@@ 121
spus@@ 120
OK. 120
bel@@ 120
enn@@ 119
far@@ 119
sist@@ 119
hei@@ 118
OK, 118
Ă@@ 118
Gol@@ 118
împăr@@ 118
aca 118
Cr@@ 117
Reg@@ 117
mp@@ 117
ără 117
trag@@ 117
fan@@ 117
ã@@ 117
ry 116
forma@@ 116
ioane 115
oare@@ 115
Vor@@ 115
Nat@@ 115
sig@@ 114
alifor@@ 114
frastr@@ 114
Me@@ 114
Ab@@ 113
igh@@ 113
bes@@ 113
Stev@@ 113
Jam@@ 113
John 112
lau@@ 112
bro@@ 111
Google 111
et. 111
per 110
număr@@ 110
I 110
196@@ 109
hn@@ 109
imeni 109
zei@@ 109
imens@@ 109
!@@ 108
197@@ 108
Jap@@ 108
S: 108
ocu@@ 107
Tr@@ 107
D 107
Fo@@ 106
Pol@@ 106
Sch@@ 106
Stat@@ 105
Bil@@ 105
fos@@ 105
C 105
Oh, 105
lich@@ 105
Nig@@ 104
Apo@@ 104
asemen@@ 104
Ber@@ 104
ali@@ 104
Gal@@ 104
get@@ 104
Ken@@ 104
întâl@@ 103
funda@@ 103
Chr@@ 102
totde@@ 102
demon@@ 102
ot 102
ten 101
puter 101
Ap@@ 101
Mich@@ 101
"T@@ 101
elul 101
ick 101
lung 101
gram@@ 101
gn@@ 101
Lin@@ 101
bert 100
Ho@@ 100
extre@@ 100
Was@@ 99
hing@@ 99
entru 99
Ș@@ 99
plu, 99
z. 99
hab@@ 99
Ein@@ 99
1. 98
ack@@ 98
yn@@ 98
dam@@ 98
des 98
Fol@@ 97
l. 97
ig 97
fant@@ 97
Inst@@ 96
ist. 96
ies 96
et, 96
Gen@@ 96
Gro@@ 96
woo@@ 96
Ander@@ 95
faţ@@ 95
ber 95
Ce@@ 95
th@@ 95
comple@@ 95
ay 95
bre@@ 95
Go@@ 94
stru 94
ces@@ 94
w 94
Lo@@ 93
zbo@@ 93
te? 93
xim@@ 93
Mal@@ 92
1,@@ 92
Ter@@ 92
ară@@ 92
ing, 92
câte@@ 92
normal@@ 91
Vo@@ 91
ment 91
ag 91
âng@@ 91
Dis@@ 91
han@@ 90
"S@@ 90
Str@@ 90
Pu@@ 90
Ste@@ 90
omat@@ 90
les 90
S 89
z, 89
?@@ 89
Ok, 89
indcă 89
j 89
sto@@ 89
nen@@ 88
Am@@ 87
tive 87
Ok@@ 87
f. 87
Mil@@ 87
CO@@ 86
Inter@@ 86
che 86
Im@@ 86
as. 85
ure 85
bis@@ 85
Ger@@ 84
og 84
Da@@ 84
Wor@@ 84
hol@@ 84
Sti@@ 83
T 82
s-@@ 82
"H@@ 82
Ir@@ 82
tograf@@ 82
ohn@@ 81
Be@@ 81
desc 81
wi@@ 81
mite 80
bez@@ 80
blo@@ 80
Mu@@ 79
ist, 79
ing. 78
net 78
astă 78
emp@@ 78
Goog@@ 77
toc@@ 77
Mat@@ 77
cresc@@ 76
coper@@ 76
wa@@ 76
vr@@ 76
s: 76
ann@@ 75
Wal@@ 75
Video@@ 75
dig@@ 73
as, 73
pos@@ 73
spon@@ 73
omen 73
ein 73
brit@@ 73
consi@@ 72
ble@@ 72
spar@@ 72
A: 72
mol@@ 72
War@@ 72
Medi@@ 71
t: 71
inte@@ 71
jen@@ 71
all 71
Ju@@ 71
fort 70
:@@ 70
Sol@@ 70
sem 69
dup@@ 69
tel 69
ern@@ 69
Tit@@ 69
Acest@@ 68
Vir@@ 68
OK@@ 67
Vor 67
Dan@@ 67
moral@@ 67
win@@ 66
ca. 66
ans 66
băr@@ 65
ek@@ 65
X 65
Pl@@ 65
urc@@ 65
]@@ 65
fu@@ 65
Ver@@ 65
hin@@ 65
Will@@ 65
— 64
ph@@ 64
star@@ 63
's 63
Stan@@ 63
extra@@ 63
tut@@ 63
Dup@@ 63
tutur@@ 63
neu@@ 62
Ţ@@ 62
hat@@ 62
ast 62
f, 62
Sk@@ 62
q@@ 62
Ja@@ 61
ess 61
nation@@ 61
of 61
Kar@@ 61
enz@@ 60
eh@@ 60
Bi@@ 60
Fil@@ 59
ft 59
ch 59
bet@@ 59
&@@ 59
ob 58
Ph@@ 58
Fl@@ 58
Tat@@ 58
Gener@@ 58
Hy@@ 58
Ant@@ 58
..@@ 57
ja, 56
igen 56
ur, 56
kl@@ 56
lie@@ 56
ation@@ 56
ill 56
Mis@@ 56
bil 55
Phil@@ 55
Ele@@ 55
her 55
ster 55
ler 55
Oamen@@ 54
sei 54
B 54
fort@@ 54
cip@@ 54
Internet 54
Gar@@ 54
Mag@@ 53
man, 53
sk@@ 53
ung, 53
Mor@@ 53
ter. 52
Dre@@ 52
Nation@@ 52
vier@@ 52
Sta@@ 52
ah 52
hel@@ 52
He@@ 51
seamnă 51
asupr@@ 51
Fre@@ 51
suprav@@ 51
gib@@ 51
emat@@ 51
Dec@@ 50
credi@@ 50
vern@@ 50
ung. 50
Ta@@ 50
apit@@ 49
urop@@ 49
ck 49
Studi@@ 49
ivers@@ 49
ângă 49
preun@@ 48
eter 48
ab 48
Mas@@ 48
iter@@ 48
dim@@ 48
Res@@ 48
câşti@@ 48
;@@ 48
mach@@ 48
ih@@ 47
zun@@ 47
Kin@@ 47
P 47
Din@@ 47
amer@@ 47
Mol@@ 47
Ț@@ 46
ste, 46
ps@@ 45
Tran@@ 45
sion@@ 45
Her@@ 45
lang@@ 45
rie@@ 45
zin@@ 45
ff@@ 44
ter, 44
Rob@@ 44
te: 44
Plan@@ 44
die, 44
Sin@@ 44
scrip@@ 43
plu 43
pp@@ 42
M 42
Dav@@ 42
Pub@@ 42
târ@@ 42
Dor@@ 42
ass@@ 41
versu@@ 41
adevăr 41
t." 41
Son@@ 41
î 41
Qu@@ 41
♫@@ 41
U 41
fol@@ 41
ss 40
maj@@ 40
hit@@ 40
Q@@ 40
Mik@@ 40
trag 39
Web@@ 39
ank@@ 39
fre@@ 39
K 38
Desig@@ 38
mal, 38
alle@@ 38
hen 38
Kr@@ 37
Ang@@ 37
Mill@@ 37
sam@@ 37
La@@ 37
chit@@ 37
Met@@ 36
US@@ 36
hem@@ 36
Wo@@ 35
den 35
ign@@ 35
R 35
incredi@@ 34
Kur@@ 34
Stu@@ 34
Gl@@ 34
L 34
aph@@ 34
Aut@@ 33
lei@@ 33
ger 33
Kat@@ 33
Organ@@ 33
enh@@ 33
Prin@@ 33
ts@@ 33
ander@@ 32
Stre@@ 32
Bl@@ 32
Far@@ 32
cie@@ 32
oto 32
Super@@ 32
ein, 32
iele 31
All@@ 31
ret@@ 31
best@@ 31
Natur@@ 31
ell 31
potriva 31
foar@@ 31
veste 31
wer@@ 31
ert 31
Gan@@ 31
iel 31
hitec@@ 30
trau@@ 30
Bru@@ 30
aic@@ 30
en-@@ 30
olar@@ 30
-S@@ 30
$@@ 30
uch@@ 30
/ 30
Tal@@ 30
Sau@@ 29
asu@@ 29
ker@@ 29
ition@@ 29
adr@@ 29
Kon@@ 29
ich 29
Je@@ 29
G 29
Ru@@ 28
mer 28
eck@@ 28
Nam@@ 28
Ko@@ 28
Da 28
zur@@ 28
măc@@ 27
gen. 27
ner 27
tur 27
oport@@ 27
Model@@ 27
Interes@@ 27
ess@@ 27
tie@@ 27
Pat@@ 27
Bel@@ 27
We@@ 26
ik 26
gen, 26
wel@@ 26
ink@@ 26
uk@@ 26
rif@@ 26
bei 26
dien@@ 26
Exper@@ 25
dire@@ 25
eine 25
andel@@ 25
hir@@ 25
Dur@@ 25
up 25
iem@@ 25
les@@ 25
indem 24
bare 24
Program@@ 24
itz@@ 24
link@@ 24
Hel@@ 24
Materi@@ 24
uns, 24
Produ@@ 23
F 23
Design@@ 23
ts 23
von 23
nov@@ 23
ander 23
Den@@ 23
igen, 22
nd 22
Kam@@ 22
dern 22
glo@@ 22
Tele@@ 22
Grup@@ 22
Kl@@ 22
cle@@ 22
isch@@ 22
cher 22
Polit@@ 22
Sub@@ 22
ko@@ 21
Industr@@ 21
Blu@@ 21
lus@@ 21
Famil@@ 21
Y 21
The@@ 21
auna 21
enk@@ 21
ug 21
lag@@ 21
Energ@@ 21
Mus@@ 20
ett@@ 20
ben 20
ţiva 20
ab. 20
Die@@ 20
Bio@@ 20
Kan@@ 20
bas@@ 20
off@@ 20
Las@@ 20
ds 20
ab, 20
ss@@ 20
als 20
rank@@ 19
Ty@@ 19
tz@@ 19
aproxim@@ 19
hy@@ 19
so 19
und, 19
fest@@ 19
Mark@@ 19
Robo@@ 19
wer 18
end 18
ang 18
ding@@ 18
sie@@ 18
vor, 18
ig, 18
elig@@ 18
ein. 18
ten, 18
bar 18
Auto@@ 17
ige 17
ben. 17
stand 17
tl@@ 17
under@@ 17
ann 17
bie@@ 17
Person@@ 17
fe 17
dau@@ 16
W 16
Art 16
ch. 16
Men@@ 16
ch, 16
eil 16
Lan@@ 16
wis@@ 16
săpt@@ 16
eig@@ 16
Mom@@ 16
Bei@@ 15
$ 15
spre@@ 15
der, 15
aft 15
unge 15
imm@@ 15
înţ@@ 15
inn@@ 15
nie 15
q 15
len 15
ten. 14
) 14
trol@@ 14
gar 14
wor@@ 14
hl@@ 14
respon@@ 14
Design 14
Flu@@ 14
zeu 14
înț@@ 14
Fort@@ 14
H 14
Mathem@@ 14
Fel@@ 13
ation 13
Computer@@ 13
hil@@ 13
Ern@@ 13
je 13
ater 13
ig. 13
hat 13
kar@@ 13
Rau@@ 13
du 12
tes 12
bei@@ 12
en: 12
ben, 12
ging 12
Spr@@ 12
plex@@ 12
iff@@ 12
sie, 12
enn 12
sam 12
sind 12
fast 12
wo@@ 12
Oka@@ 11
del 11
schw@@ 11
gab@@ 11
bin 11
Situ@@ 11
bau@@ 11
gel 11
Sie@@ 11
ke 11
ach 11
tion 11
ende 11
techn@@ 11
Mit@@ 11
Bez@@ 10
ens 10
sei@@ 10
weil 10
J 10
omm@@ 10
ges 10
aus@@ 10
Z 10
Mut@@ 10
sie. 10
Pap@@ 10
Planet@@ 10
Sel@@ 10
wei@@ 10
Um@@ 9
ickl@@ 9
Dat@@ 9
neu 9
Lei@@ 9
Wis@@ 9
ym@@ 9
Gel@@ 9
gine 9
Kun@@ 9
â 9
ys@@ 9
½ 9
iger 9
Hin@@ 9
ö@@ 9
+ 9
Plat@@ 8
Hil@@ 8
ern 8
ann, 8
elle 8
Engl@@ 8
♪ 8
Mann 8
pro 8
immer@@ 8
kon@@ 7
ik. 7
off 7
Q 7
unk@@ 7
yst@@ 7
Rich@@ 7
stie@@ 7
TE@@ 7
tern 7
sel 7
vier 7
schie@@ 7
Fu@@ 7
Atom@@ 7
#@@ 7
en? 7
amil@@ 7
sen 7
Hoff@@ 7
¨@@ 7
amm@@ 7
Publ@@ 7
dem, 7
lig 7
+@@ 7
sten 7
Zei@@ 7
kur@@ 7
sion 7
los@@ 7
kr@@ 7
nich@@ 6
erz@@ 6
so, 6
“ 6
Nach@@ 6
res 6
oft@@ 6
tau@@ 6
Yor@@ 6
ation. 6
ahl@@ 6
iff 6
lass@@ 6
lich 6
Galax@@ 6
Schul@@ 6
wich@@ 6
so. 6
pen 6
ern, 6
ych@@ 6
men. 6
den, 6
dru@@ 6
Techn@@ 6
tete 6
mir 6
zen@@ 6
etw@@ 6
haf@@ 6
Kol@@ 6
sen, 5
ist: 5
strum@@ 5
Kre@@ 5
zus@@ 5
(@@ 5
beg@@ 5
sch 5
* 5
’@@ 5
drei 5
uch 5
leb@@ 5
Stra@@ 5
Kor@@ 5
ser 5
Es@@ 5
Tier@@ 5
einer 5
ika 5
Fahr@@ 5
hin 5
Proz@@ 5
Fern@@ 5
men, 5
stei@@ 5
Sym@@ 5
@@@ 5
ik, 5
Organis@@ 5
Beh@@ 5
Sek@@ 5
hr 5
tun 5
dies 5
ā@@ 5
Technolog@@ 4
`@@ 4
tik@@ 4
«@@ 4
unter@@ 4
aus 4
hoch@@ 4
Sach@@ 4
obiş@@ 4
nie@@ 4
Fall@@ 4
= 4
Schn@@ 4
zum 4
… 4
Part@@ 4
Rei@@ 4
Got@@ 4
¨ 4
´@@ 4
dest 4
oren 4
los 4
wie@@ 4
schen 4
trie@@ 4
heit. 4
aus. 4
™ 4
’ 4
Energie 4
*@@ 4
Gem@@ 4
Probleme 4
Man 4
auf@@ 4
é@@ 4
Eig@@ 4
zu 4
ñ@@ 4
ateg@@ 4
Fir@@ 4
–@@ 4
wort@@ 4
Jah@@ 4
ün@@ 3
chen 3
Idee 3
»@@ 3
Neu@@ 3
wir@@ 3
alles 3
Bau@@ 3
system@@ 3
ich, 3
hier@@ 3
Best@@ 3
ierte 3
sein, 3
Hand@@ 3
„ 3
sere 3
Afrik@@ 3
wen@@ 3
hau@@ 3
fern@@ 3
Ak@@ 3
einz@@ 3
Fing@@ 3
System@@ 3
‘@@ 3
anders 3
tet, 3
Zeit@@ 3
mein@@ 3
sten, 3
Wer@@ 3
en." 3
namen@@ 3
Gegen@@ 3
zwei@@ 3
Sich@@ 3
mir, 3
Wei@@ 3
…@@ 3
war. 3
Zu@@ 3
Foto@@ 2
—@@ 2
drau@@ 2
sag@@ 2
neh@@ 2
was@@ 2
etz@@ 2
ó@@ 2
inner@@ 2
enz 2
Herz@@ 2
will 2
verl@@ 2
Beg@@ 2
zel@@ 2
sein@@ 2
Ş 2
¾ 2
ition 2
Spiel@@ 2
agen 2
kn@@ 2
hn 2
geb@@ 2
Bes@@ 2
Land@@ 2
System 2
ache 2
rer 2
Aus@@ 2
Tag@@ 2
á 2
Auto 2
gende 2
USA 2
Dam@@ 2
Wel@@ 2
=@@ 2
mus 2
ange@@ 2
Gei@@ 2
utz@@ 2
dach@@ 2
ken 2
pass@@ 2
isten 2
É@@ 2
é 2
sein 2
ü@@ 2
cht 2
fahr@@ 2
spez@@ 2
tun. 2
gang 2
ation, 2
den. 2
á@@ 2
ien 2
è@@ 2
Rech@@ 2
chen. 2
wes@@ 2
bald 2
@@ 2
€@@ 2
fen 2
heit, 2
nach@@ 2
à@@ 2
Lie@@ 2
eren 2
Ster@@ 2
ern. 2
ien, 2
~ 2
das 2
weit 2
war 2
wo 1
dein@@ 1
» 1
Ih@@ 1
Film 1
Kul@@ 1
sen. 1
das, 1
doch 1
kei@@ 1
einig@@ 1
will@@ 1
[ 1
Um 1
# 1
Das 1
einf@@ 1
Zeu@@ 1
Dollar 1
Kom@@ 1
Geb@@ 1
ses 1
heit 1
¥ 1
)@@ 1
Ich 1
habe 1
Vide@@ 1
utzen 1
tet 1
wur@@ 1
auf. 1
© 1
Schl@@ 1
buie 1
dig 1
Zw@@ 1
¼ 1
perso@@ 1
bis 1
sah 1
½@@ 1
² 1
schn@@ 1
Es 1
tigen 1
acht 1
ganz 1
Art, 1
ische 1
für 1
wird 1
weise 1
tlich 1
gesch@@ 1
ütz@@ 1
welche 1
Kunst 1
durch 1
isch 1
äum@@ 1
mä@@ 1
igkei@@ 1
meinen 1
mensch@@ 1
neue 1
Wirk@@ 1
ungen 1
möglich 1
ِ@@ 1
verw@@ 1
Kop@@ 1
andere 1
sich@@ 1
ê@@ 1
Ding@@ 1
das@@ 1
erst@@ 1
aten 1
Ȋ@@ 1
grund 1
tun, 1
 1
à 1
Doll@@ 1
leist@@ 1
kun@@ 1
pf@@ 1
verr@@ 1
dav@@ 1
zog@@ 1
Schw@@ 1
Hand 1
kul@@ 1
® 1
rich@@ 1
Eben@@ 1
volution 1
unter 1
genie@@ 1
^@@ 1
zu, 1
fall@@ 1
auf 1
ç@@ 1
Ç@@ 1
bede@@ 1
ikan@@ 1
ï@@ 1
eher 1
ön@@ 1
deck@@ 1
fand 1
Â@@ 1
₂@@ 1
₂ 1
hat, 1
ä@@ 1
gut 1
Wie@@ 1
£ 1
iert, 1
icht@@ 1
wie 1
schei@@ 1
rem 1
war, 1
drit@@ 1
dass 1
sech@@ 1
lichen 1
