die 42105
und 36929
der 31346
en 30313
t 26823
, 24904
in 23567
es 23401
en, 22284
das 22117
. 21868
zu 21430
ist 21220
t@@ 21191
k@@ 20576
ich 20405
er 19259
s@@ 19120
er@@ 18419
en. 18370
wir 18161
e 18092
den 18069
ten 16324
S@@ 15879
te 15676
ge@@ 15523
h@@ 15034
ein 15003
t, 14919
l@@ 14894
eine 14892
Und 14751
n@@ 14645
sie 14567
Sie 14346
von 14303
en@@ 13701
dass 13451
an@@ 13257
st@@ 13204
f@@ 12953
t. 12534
ch@@ 12461
b@@ 12230
M@@ 12058
B@@ 12027
m@@ 11881
ver@@ 11791
w@@ 11791
K@@ 11774
s 11761
sch@@ 11526
nicht 11510
z@@ 11391
be@@ 11332
D@@ 11191
mit 10659
F@@ 10656
auf 10151
H@@ 10087
g@@ 10070
d@@ 9890
Ich 9711
L@@ 9651
T@@ 9574
in@@ 9496
wie 9389
W@@ 8925
um 8889
für 8796
g 8585
sich 8582
a@@ 8472
u@@ 8304
al@@ 8215
r@@ 8197
ung 8097
re@@ 8042
einen 7997
un@@ 7957
man 7873
p@@ 7694
-@@ 7680
an 7645
ie@@ 7622
e, 7572
N@@ 7562
ein@@ 7556
dem 7530
ä@@ 7515
als 7475
o@@ 7438
ar@@ 7335
Das 7288
it@@ 7283
"@@ 7158
e@@ 7153
au@@ 7095
at@@ 6995
da@@ 6967
was 6922
m 6913
el@@ 6881
so 6822
Es 6687
or@@ 6635
ü@@ 6544
gen@@ 6498
n 6350
: 6277
G@@ 6264
ig@@ 6240
sind 6157
lich 6043
R@@ 6037
des 6022
P@@ 6010
diese 6006
is@@ 5849
im 5809
zu@@ 5791
A@@ 5765
ö@@ 5745
i@@ 5744
wenn 5737
haben 5715
E@@ 5674
y@@ 5663
l 5605
Wir 5535
Sch@@ 5528
ent@@ 5525
aus@@ 5507
war 5457
es@@ 5422
der@@ 5389
ier@@ 5294
einem 5230
? 5207
d 5199
Ver@@ 5197
über 5188
te, 5127
einer 5099
et@@ 5062
ab@@ 5051
tr@@ 5003
te@@ 4991
ol@@ 4981
J@@ 4882
kl@@ 4837
St@@ 4822
Z@@ 4748
on@@ 4741
aus 4738
uns 4737
ur@@ 4703
auf@@ 4703
de 4701
le@@ 4636
ach@@ 4579
I@@ 4569
de@@ 4549
-- 4547
ter 4506
oder 4482
st 4466
um@@ 4400
wei@@ 4327
gen 4299
Aber 4284
am@@ 4278
ter@@ 4249
Die 4222
aber 4218
and 4171
Er@@ 4133
auch 4127
sen 4123
e. 4069
ik@@ 4026
sehr 4026
ist, 4012
ß@@ 3979
ten, 3970
sp@@ 3970
ei@@ 3943
V@@ 3897
sag@@ 3892
An@@ 3867
ut@@ 3859
hier 3847
O@@ 3831
ag@@ 3816
s, 3751
il@@ 3726
nur 3723
as@@ 3681
stell@@ 3587
Gr@@ 3577
Ar@@ 3572
ben 3562
– 3554
dann 3551
di@@ 3548
- 3505
le 3500
chen 3497
om@@ 3492
hat 3439
hr@@ 3429
her@@ 3391
v@@ 3381
C@@ 3373
all@@ 3364
zei@@ 3362
dar@@ 3354
In@@ 3298
ten. 3248
vor@@ 3246
über@@ 3230
ungen 3215
f 3203
Ge@@ 3188
gibt 3185
ich@@ 3173
noch 3158
also 3154
bei 3133
ak@@ 3124
dieser 3121
1@@ 3110
werden 3091
ung@@ 3081
ing@@ 3075
j@@ 3065
se 3043
ch 3036
mich 3027
ben@@ 3018
ul@@ 3009
lich@@ 2988
ge 2966
lie@@ 2962
te. 2929
Be@@ 2921
o 2920
ie 2920
hei@@ 2904
etwas 2902
geh@@ 2899
geb@@ 2887
ischen 2874
gr@@ 2872
ische 2841
z 2835
nach 2834
kann 2832
können 2832
denk@@ 2818
Fr@@ 2800
d, 2789
am 2786
wird 2768
Wenn 2762
än@@ 2761
Menschen 2751
habe 2747
a 2744
isch@@ 2733
ger@@ 2717
." 2711
♫ 2700
mach@@ 2698
je@@ 2660
den@@ 2656
vor 2644
eh@@ 2639
k 2638
hn@@ 2618
lichen 2595
liche 2588
wen@@ 2584
dr@@ 2567
ber@@ 2564
ör@@ 2540
alle 2525
af@@ 2521
Al@@ 2515
ell@@ 2512
wer@@ 2506
sten 2487
ün@@ 2481
fin@@ 2478
os@@ 2475
sehen 2475
se@@ 2473
sich@@ 2457
ek@@ 2454
lei@@ 2452
mehr 2450
s. 2444
Ein@@ 2441
ah@@ 2437
ro@@ 2426
fü@@ 2420
lan@@ 2417
gan@@ 2400
ck@@ 2383
ist@@ 2382
wirklich 2378
em@@ 2376
Sp@@ 2376
bei@@ 2375
eu@@ 2363
iert 2359
den, 2343
lu@@ 2342
so@@ 2333
zum 2323
gel@@ 2311
eines 2307
all 2307
hal@@ 2284
mir 2270
komm@@ 2252
ir@@ 2251
pr@@ 2230
Au@@ 2226
hin@@ 2225
tig@@ 2223
Ihnen 2217
weil 2210
war@@ 2209
Welt 2204
gew@@ 2192
ti@@ 2190
äl@@ 2187
ern@@ 2183
durch 2181
ungs@@ 2181
est@@ 2173
Pro@@ 2171
är@@ 2157
" 2156
ist. 2151
immer 2140
ap@@ 2140
zen 2134
ten@@ 2118
ück@@ 2113
op@@ 2111
er, 2105
imm@@ 2104
ff@@ 2103
woll@@ 2099
ho@@ 2090
ts@@ 2079
dieses 2076
U@@ 2068
Er 2063
unter@@ 2062
Was 2050
for@@ 2046
lo@@ 2040
den. 2023
per@@ 2021
to@@ 2007
ste 2003
al 2001
mer@@ 1996
em 1992
rie@@ 1988
viel 1983
gef@@ 1981
ig 1954
wir@@ 1951
diesem 1947
mit@@ 1942
da 1925
keine 1924
Also 1920
and@@ 1918
gesch@@ 1914
arbei@@ 1912
ih@@ 1911
fr@@ 1903
bes@@ 1895
ann@@ 1895
ot@@ 1894
y 1886
gt 1885
wur@@ 1883
ft 1880
ieren 1872
ander@@ 1868
soll@@ 1850
ad@@ 1849
men 1847
meine 1845
iel@@ 1845
Or@@ 1845
ne 1842
diesen 1842
Bil@@ 1837
che 1808
is 1805
us@@ 1804
schaf@@ 1802
ts 1800
ung, 1790
ser 1783
ation@@ 1782
unsere 1781
br@@ 1780
ib@@ 1778
ien 1773
viele 1772
Kon@@ 1771
ann 1766
im@@ 1762
hr 1759
fer@@ 1757
Vor@@ 1751
wo 1750
ihre 1742
ar 1735
a, 1733
ob@@ 1727
äu@@ 1725
ma@@ 1719
sein 1703
Leute 1700
ß 1695
utz@@ 1678
ur 1672
Der 1671
ür@@ 1668
eg@@ 1663
r 1654
rich@@ 1643
best@@ 1640
men@@ 1639
n, 1635
if@@ 1633
ige 1631
ech@@ 1631
zwei 1630
führ@@ 1629
sen, 1629
igen 1624
steh@@ 1620
Ges@@ 1618
2@@ 1613
glaub@@ 1611
wurde 1606
des@@ 1604
wür@@ 1604
Art 1598
pl@@ 1591
Aus@@ 1586
einfach 1585
de, 1571
groß@@ 1566
fen 1563
kann@@ 1560
kt 1553
Wel@@ 1553
ung. 1552
haben, 1552
age 1551
ge, 1551
Zu@@ 1551
ill@@ 1550
n. 1549
Proble@@ 1549
brau@@ 1545
enn@@ 1543
setz@@ 1539
jetzt 1539
dies 1537
ic@@ 1536
äch@@ 1532
iz@@ 1526
tet 1521
Re@@ 1519
wel@@ 1519
Ent@@ 1519
andere 1512
hen 1509
ion 1508
wis@@ 1506
zur 1505
In 1504
icht 1503
ser@@ 1503
heit 1498
bis 1493
tig 1490
bin 1488
Zeit 1487
mög@@ 1485
off@@ 1481
Leben 1479
kommen 1479
Wie 1479
anderen 1471
Zei@@ 1463
und@@ 1460
tre@@ 1460
ern 1456
pass@@ 1456
d. 1452
ation 1452
tier@@ 1448
Kin@@ 1445
bring@@ 1444
under@@ 1444
unk@@ 1443
sen@@ 1441
sehen, 1435
ihr 1434
nach@@ 1430
Dinge 1430
spiel@@ 1429
ne@@ 1427
mal 1426
me 1424
i 1423
h 1411
ass@@ 1411
Ide@@ 1409
olog@@ 1406
es, 1404
ön@@ 1404
agen 1397
weiter@@ 1389
ant@@ 1383
sam@@ 1383
c@@ 1381
du 1379
Unter@@ 1378
damit 1377
.@@ 1376
cht 1376
he@@ 1375
könn@@ 1375
Un@@ 1370
0@@ 1370
isch 1370
mus@@ 1367
Jahren 1364
alles 1361
schn@@ 1342
en? 1341
versu@@ 1340
weg@@ 1338
kon@@ 1335
gu@@ 1335
nen 1327
hab@@ 1324
ort@@ 1321
En@@ 1313
sel@@ 1312
fol@@ 1311
auen 1310
haben. 1307
Jahre 1305
änder@@ 1302
Le@@ 1301
Man 1298
kenn@@ 1296
wär@@ 1293
ale 1291
de. 1290
denen 1286
müssen 1279
schein@@ 1277
ion@@ 1276
konn@@ 1276
pf@@ 1274
su@@ 1272
bar@@ 1272
tes 1272
hatte 1270
hat@@ 1269
glei@@ 1267
so, 1262
ick@@ 1255
äh@@ 1252
spr@@ 1250
Ch@@ 1243
tion@@ 1240
sind, 1239
zusam@@ 1238
gin@@ 1231
heraus@@ 1231
mein 1230
machen 1230
Techn@@ 1227
denn 1224
iel 1220
sind. 1214
rer 1209
macht 1205
an, 1193
me@@ 1193
no@@ 1192
sol@@ 1190
Jahr@@ 1190
schon 1189
ahl@@ 1188
fahr@@ 1186
jem@@ 1186
schl@@ 1186
str@@ 1185
er. 1184
ich, 1183
oll@@ 1182
Hier 1180
waren 1177
nich@@ 1172
Was@@ 1167
fl@@ 1167
ie, 1166
Wei@@ 1165
leb@@ 1163
halb 1162
ahr@@ 1161
wissen 1161
ent 1156
ob 1155
Mit@@ 1154
war, 1151
ieh@@ 1149
unser@@ 1147
Fre@@ 1144
ik 1144
keit 1144
muss 1143
erst@@ 1142
eil@@ 1141
schie@@ 1136
du@@ 1133
vielleicht 1130
eit 1129
selbst 1127
man@@ 1126
ast@@ 1124
5 1124
ien@@ 1124
wahr@@ 1123
gen, 1123
dort 1123
5@@ 1123
einf@@ 1122
ganz 1122
Mensch@@ 1121
ück 1117
nah@@ 1114
For@@ 1113
etz@@ 1113
Des@@ 1106
4@@ 1104
ihnen 1103
einige 1101
Nach@@ 1100
zi@@ 1097
andel@@ 1096
omm@@ 1095
Nun, 1095
'@@ 1094
ache 1093
bin@@ 1092
werden. 1092
schaft 1091
Auf@@ 1090
og@@ 1089
kei@@ 1088
viel@@ 1086
Mar@@ 1078
ieren. 1076
iv@@ 1076
teil@@ 1075
geht 1075
3@@ 1065
wieder 1065
ende 1065
u 1063
können. 1063
tatsächlich 1063
Ta@@ 1060
ec@@ 1059
reich@@ 1056
Inter@@ 1055
wo@@ 1054
ez@@ 1052
up@@ 1052
kr@@ 1045
dig@@ 1045
eig@@ 1043
m, 1043
werde 1041
ität 1041
neu@@ 1040
paar 1040
ang@@ 1039
lich, 1039
; 1039
Gen@@ 1038
Reg@@ 1038
aten 1035
größ@@ 1034
seine 1029
ähr@@ 1029
zeu@@ 1027
mo@@ 1027
drei 1027
iger 1025
äng@@ 1024
würde 1022
hör@@ 1021
ßen 1020
ze@@ 1020
weise 1019
fan@@ 1019
nicht, 1019
qu@@ 1018
mein@@ 1018
rit@@ 1015
ihn 1013
Her@@ 1013
el 1013
lau@@ 1010
TED 1007
her 1005
bl@@ 1005
Mon@@ 1003
Per@@ 1002
sen. 1002
Pr@@ 1001
we@@ 999
Geb@@ 998
unter 997
tige 995
interes@@ 992
heute 991
eigen@@ 987
ac@@ 986
?" 985
tun 982
end 980
ele@@ 980
ellen 976
einz@@ 975
son@@ 973
Sie, 973
ip@@ 972
iert. 972
Ab@@ 970
ieren, 970
ken 970
entwickel@@ 970
möchte 969
Diese 968
tion 965
Um@@ 964
Wer@@ 964
be 964
durch@@ 963
schre@@ 962
natür@@ 961
tra@@ 960
pro@@ 958
wor@@ 957
19@@ 953
Str@@ 952
fre@@ 951
las@@ 950
Leben@@ 950
nun 948
Ber@@ 948
en: 942
hier@@ 940
Se@@ 939
tiv@@ 938
wie@@ 937
hl@@ 935
gl@@ 935
vom 934
meiner 934
sein. 934
entlich 933
schw@@ 933
! 931
x@@ 931
Gel@@ 930
Ein 927
elle 925
Kinder 925
chte 924
it 923
zurück@@ 923
an. 922
kom@@ 919
tel@@ 917
8@@ 916
gut 915
ie. 914
genau 914
We@@ 914
tigen 913
Dies 910
die@@ 908
6@@ 908
a. 908
Sei@@ 907
ru@@ 907
neue 905
davon 905
fas@@ 901
Geschichte 900
erzähl@@ 900
Tr@@ 899
unserer 898
zwei@@ 895
Mo@@ 895
Jahr 893
Din@@ 893
Rau@@ 892
Nat@@ 891
dung 890
det 890
kauf@@ 890
inner@@ 890
rech@@ 887
gen. 884
te: 884
hat, 884
Viel@@ 883
ges@@ 883
kein 882
Teil 882
enden 882
Ma@@ 880
st, 878
können, 878
zwischen 877
funktion@@ 877
hät@@ 875
t: 874
ges 873
laub@@ 872
bau@@ 872
betr@@ 871
erz@@ 869
näch@@ 869
sondern 869
Bu@@ 865
gest@@ 864
Mill@@ 861
irgend@@ 861
Dank@@ 859
Com@@ 859
stän@@ 859
gehen 857
ko@@ 855
sein, 854
wirk@@ 853
sa@@ 852
gib@@ 850
brach@@ 846
äm@@ 845
at 842
Ex@@ 841
äd@@ 840
schei@@ 840
halten 840
mu@@ 840
frag@@ 840
lin@@ 840
mensch@@ 840
schen 838
Kl@@ 836
ens@@ 836
darüber 834
veränder@@ 833
Schul@@ 833
wus@@ 832
ss@@ 832
gerade 830
9@@ 830
Stu@@ 830
au 824
Doll@@ 824
wi@@ 823
b 822
ationen 821
form@@ 820
dre@@ 819
0 818
inter@@ 818
iert, 817
ikan@@ 816
schaff@@ 816
verschie@@ 815
kommt 815
eil 814
unden 813
nehm@@ 812
doch 812
ex@@ 812
fühl@@ 812
ster@@ 811
Als 807
nehmen 806
rank@@ 806
Eine 805
Par@@ 804
nis@@ 802
tu@@ 802
anz@@ 802
Millionen 802
schau@@ 802
on 802
Ph@@ 799
chen, 799
ach 799
t? 798
del@@ 798
ütz@@ 798
kann. 798
Wo@@ 798
Kr@@ 798
äf@@ 797
hat. 796
tung 795
Mat@@ 793
sagen 793
berei@@ 793
öff@@ 792
entr@@ 790
Wir@@ 790
To@@ 790
p 790
sagen, 790
kur@@ 789
sehen. 785
machen. 785
Gesch@@ 785
ohne 785
mö@@ 782
öl@@ 779
voll@@ 778
werden, 777
Plan@@ 777
Kre@@ 777
Beisp@@ 776
ganze 774
fall@@ 774
itz@@ 774
ra@@ 774
ziemlich 773
Die@@ 772
ätz@@ 771
lichkei@@ 767
he 766
ze 766
ologie 765
enz@@ 764
sogar 763
Gehir@@ 763
7@@ 761
War@@ 761
gab 760
ließ@@ 757
bil@@ 756
tet, 755
während 753
ihren 752
wird. 751
warum 751
erste 751
ort 750
ss 750
Univers@@ 750
etwa 750
net@@ 749
itä@@ 749
lich. 746
Leu@@ 745
do@@ 743
or 742
jeder 742
hin 742
Rei@@ 741
letzten 740
Afr@@ 738
wohl 738
Me@@ 738
beit 736
Über@@ 735
stan@@ 734
hau@@ 733
lichkeit 733
ch, 733
nie 732
kam@@ 731
ein, 730
vie@@ 730
kun@@ 730
.000 730
stat@@ 729
ersten 728
ide@@ 728
are 727
Geschich@@ 727
tun@@ 727
So 727
einmal 725
Wissenschaf@@ 722
Talk 721
sieht 721
ign@@ 720
unde 720
alen 719
st. 718
ystem@@ 718
welche 718
geben 718
unser 717
ine 715
nicht. 713
sprech@@ 712
san@@ 712
gab@@ 710
beweg@@ 710
ika 710
Br@@ 709
ut 709
ler 707
jek@@ 706
io@@ 706
große 705
Hau@@ 704
Men@@ 702
star@@ 701
stellen 701
Bo@@ 700
lang@@ 700
Prozent 700
Subtitles 699
Transcript: 699
letz@@ 699
deck@@ 699
selb@@ 698
lern@@ 698
yst@@ 698
ran@@ 696
Ger@@ 696
Energ@@ 695
hatten 695
00 695
hem@@ 694
Gl@@ 693
achen 692
un, 691
Met@@ 691
schle@@ 689
üch@@ 689
tz@@ 687
aus. 687
Pl@@ 687
fe 686
pt@@ 686
th@@ 685
besser@@ 684
ens 684
Ihre 683
könnte 682
Min@@ 682
Mus@@ 682
meisten 681
Ko@@ 680
as, 678
ßer@@ 675
dazu 675
sei@@ 675
kam 674
ben. 673
finden 673
Kar@@ 673
sagte 671
sin@@ 671
verl@@ 670
wich@@ 668
Fil@@ 668
mal@@ 666
wichtig@@ 665
iff@@ 665
bedeu@@ 662
stehen 661
Ö@@ 661
war. 660
Fü@@ 659
Mög@@ 656
mei@@ 656
dank@@ 653
wach@@ 653
bre@@ 652
ähn@@ 652
ge. 650
bis@@ 650
A 647
al, 645
win@@ 645
Ro@@ 645
Indi@@ 644
ub@@ 644
... 641
Son@@ 640
müs@@ 639
Ant@@ 638
ill 637
dern 636
m. 634
2 633
ei 632
es. 630
of@@ 629
ähl@@ 628
zur@@ 627
Qu@@ 627
av@@ 624
ativ@@ 623
seh@@ 622
as 620
ins 620
mat@@ 619
gre@@ 617
sun@@ 617
y, 616
Ä@@ 613
se, 612
eri@@ 611
itu@@ 611
„@@ 611
Gro@@ 610
pe 609
Ok@@ 609
amen@@ 605
son 604
ph@@ 604
ner@@ 601
ster 600
Medi@@ 600
At@@ 598
10 596
,@@ 593
Wis@@ 593
iem@@ 592
ber 591
iar@@ 588
ere 586
Do@@ 584
Rich@@ 579
enn 575
tur@@ 574
end@@ 573
un 571
", 567
nor@@ 566
". 560
um, 559
tro@@ 558
üs@@ 558
bal@@ 557
ionen 555
etw@@ 554
mel@@ 549
etzt 548
amil@@ 545
50 541
gram@@ 540
ier 539
Ob@@ 539
20 538
Ne@@ 535
pu@@ 532
Amer@@ 531
net 530
mir@@ 525
tat@@ 523
si@@ 522
gro@@ 520
re, 519
pt 517
produ@@ 517
on, 512
Proz@@ 512
Po@@ 510
volu@@ 503
pre@@ 502
So@@ 501
Bei@@ 498
us 495
h, 493
ses 491
och@@ 489
Pre@@ 488
bo@@ 488
Lu@@ 486
Su@@ 486
alt 486
sat@@ 485
amer@@ 482
8 480
po@@ 476
ord@@ 473
ate 470
leg@@ 469
De@@ 464
mor@@ 462
vol@@ 461
vers@@ 460
Ding@@ 459
3 455
leicht 454
200@@ 448
est 447
lex@@ 445
se. 443
“ 432
fel@@ 430
par@@ 425
ab 422
ank@@ 422
4 420
ohn@@ 419
hl 418
min@@ 415
flu@@ 415
zw@@ 411
gle@@ 410
20@@ 406
puter@@ 405
co@@ 403
ia 403
v 401
rel@@ 395
senschaf@@ 393
6 392
ck 392
ja 390
um. 388
New 381
x 380
dustr@@ 380
00@@ 377
7 375
öß@@ 375
30 371
id@@ 370
Chin@@ 370
alt@@ 367
al. 367
mar@@ 366
bu@@ 365
les 365
1 363
100 362
Co@@ 354
usam@@ 353
mes@@ 351
ät@@ 350
glo@@ 346
az@@ 340
Y@@ 339
No@@ 337
ce 336
gar 336
Yor@@ 336
organ@@ 335
neh@@ 334
sieh@@ 334
TED@@ 332
int@@ 329
ar, 326
reg@@ 324
ma 324
os 323
pas@@ 316
ant 314
irgen@@ 313
bi@@ 311
bun@@ 309
vest@@ 307
000 304
tor 304
% 302
ima@@ 301
stru@@ 301
spir@@ 300
o, 300
ans@@ 299
ste@@ 297
dat@@ 296
ax@@ 294
re. 287
sein@@ 285
tor@@ 285
S 284
' 284
dest@@ 280
9 280
emo@@ 277
vi@@ 276
ug@@ 273
i, 272
bede@@ 270
ente 270
[@@ 265
exist@@ 264
echn@@ 262
Tran@@ 258
itiv@@ 257
este 257
erg@@ 257
sächlich 256
polit@@ 254
ati@@ 252
Tre@@ 249
!@@ 248
aj@@ 247
tin@@ 240
imens@@ 239
ial@@ 238
mon@@ 238
önn@@ 237
ind@@ 236
a-@@ 235
sum@@ 235
] 234
w 231
ment@@ 231
ase 229
id 228
dor@@ 228
e-@@ 228
s-@@ 227
pos@@ 224
dere 223
enschaf@@ 221
ven@@ 219
mag@@ 218
ban@@ 217
ir 216
ind 214
tal@@ 212
Ihr@@ 210
tot@@ 210
— 208
real@@ 205
studi@@ 202
tem@@ 201
fon@@ 201
ute 199
ef@@ 199
imen@@ 197
alte 195
Ü@@ 192
pe@@ 192
i. 191
il 190
gener@@ 188
Am 183
e: 181
fiz@@ 181
met@@ 181
or, 180
dis@@ 180
?@@ 180
lic@@ 179
tem 179
i-@@ 177
imp@@ 177
eute 176
os. 176
din@@ 175
ane 172
prob@@ 171
tim@@ 170
plan@@ 169
“@@ 169
säch@@ 168
por@@ 168
ährend 166
fo@@ 163
o. 161
ite 161
serv@@ 161
fel 161
tat 160
la 160
hnen 158
ator@@ 158
fil@@ 156
medi@@ 155
–@@ 154
entw@@ 153
proble@@ 153
fi@@ 152
/@@ 150
astr@@ 150
C 148
ativ 147
ai 146
Ja@@ 145
energ@@ 144
 @@ 140
e? 140
lum@@ 140
itat@@ 137
ensch@@ 135
olar@@ 134
Tal@@ 133
ade 132
at, 131
or. 131
nat@@ 131
era 131
ihr@@ 130
mil@@ 130
I 129
ei, 128
onom@@ 127
prof@@ 126
sim@@ 126
ase@@ 126
D 125
var@@ 124
om 122
graf@@ 121
V 119
abil@@ 117
ic 117
atr@@ 116
fotograf@@ 116
unktion@@ 115
oper@@ 115
sf@@ 114
Sub@@ 113
..@@ 112
vo@@ 112
etr@@ 111
T 110
ile 109
gem 106
ci@@ 106
bat@@ 105
pul@@ 104
tograf@@ 104
mul@@ 103
prim@@ 102
ve@@ 102
sist@@ 102
fur@@ 102
Mö@@ 102
stu@@ 101
mi@@ 101
ain@@ 101
priv@@ 100
eleg@@ 100
istor@@ 96
dom@@ 94
X@@ 94
ei. 91
ce@@ 91
at. 88
nu@@ 86
ina 86
iment@@ 85
ni@@ 85
Ast@@ 85
exper@@ 84
zon@@ 83
com@@ 82
motiv@@ 81
prin@@ 80
Ac@@ 80
hir@@ 79
dur@@ 79
put@@ 77
ose@@ 77
uz@@ 77
igur@@ 77
ca 76
mom@@ 76
ine@@ 76
pol@@ 75
a? 74
ele 73
pa@@ 73
fie@@ 72
expl@@ 72
u, 72
Pu@@ 72
nd 71
tele@@ 71
pan@@ 71
:@@ 71
P 70
sub@@ 69
ia, 69
ta 68
uman@@ 67
u. 67
ivers@@ 66
Dec@@ 66
uit@@ 65
sc@@ 65
O 65
sur@@ 64
ace 62
ale, 62
din 62
spun@@ 62
]@@ 61
ice 61
ate, 60
fach 60
N 60
dez@@ 59
trans@@ 58
tip@@ 58
ime 58
amin@@ 57
publ@@ 56
%@@ 56
ia. 55
” 55
sal@@ 55
cl@@ 54
vin@@ 54
ace@@ 54
mun@@ 53
pet@@ 52
E 52
c. 50
ultim@@ 50
c 49
col@@ 48
B 48
lung@@ 48
Mul@@ 47
ica 47
it, 46
ire 46
Cre@@ 46
sem 46
imit@@ 45
pus 45
pi@@ 44
X 44
oar@@ 44
K 44
rec@@ 44
loc@@ 44
it. 43
♪ 42
… 42
sing@@ 42
car@@ 41
ickel@@ 41
Q@@ 41
imb@@ 41
mod@@ 40
urm@@ 40
jo@@ 40
con@@ 40
fos@@ 38
cel@@ 38
$@@ 38
adu@@ 38
va 37
treb@@ 37
ate. 37
ziem@@ 36
ac 36
dif@@ 36
&@@ 36
é@@ 35
sem@@ 35
R 34
num@@ 34
L 34
ju@@ 34
La 34
cor@@ 33
ble@@ 33
M 33
tot 33
ibil@@ 33
rea 33
anim@@ 33
fac@@ 32
inc@@ 32
natur@@ 32
G 32
pie@@ 32
tit@@ 32
plu@@ 31
$ 31
[ 31
dic@@ 30
nec@@ 30
ul 30
W 28
cre@@ 28
q@@ 28
cr@@ 28
U 28
are, 28
Av@@ 27
ij@@ 26
ii 26
ara 26
á@@ 26
F 25
dat 25
tic@@ 24
si 24
H 24
face 24
´@@ 24
ani 23
rez@@ 23
cu@@ 23
cin@@ 23
½ 23
sa 23
lor 22
can@@ 21
are. 21
’@@ 21
val@@ 20
°@@ 20
zi 20
mi 20
ti 19
ura 19
Sun@@ 19
β@@ 19
ces@@ 18
eu 18
é 17
«@@ 17
fi 17
ata 17
—@@ 16
Y 16
ic, 16
ile, 16
/ 16
perso@@ 16
Q 15
»@@ 15
apo@@ 15
cat@@ 15
nim@@ 15
ic. 15
;@@ 15
intr@@ 14
pot 14
ele. 14
‟ 14
= 13
‘ 13
‚@@ 13
ó@@ 13
abil 13
Z 13
ape 13
jur@@ 13
pier@@ 13
unc@@ 13
i? 12
ci 12
² 12
niv@@ 12
iec@@ 12
J 11
ori 11
lume 11
dar 11
cop@@ 11
ñ@@ 11
asu@@ 10
» 10
‘@@ 10
asa 10
”@@ 10
) 10
cul@@ 10
cal@@ 10
sta 10
patr@@ 9
fem@@ 9
Ei 9
inv@@ 9
nic@@ 9
vorb@@ 9
itate 9
« 9
ave@@ 8
+ 8
#@@ 8
j 8
ile. 7
cer@@ 7
ü 7
dev@@ 7
ea 7
iliz@@ 7
TE@@ 7
♫@@ 7
ii. 7
aza 7
ele, 7
auz@@ 7
ulu@@ 7
ani, 6
eva 6
De 6
ea, 6
Un 6
ó 6
una 6
ui 6
mine 6
ul, 6
afl@@ 6
ii, 5
=@@ 5
scr@@ 5
(@@ 5
bine 5
poz@@ 5
è@@ 5
imagin@@ 5
asta 5
forma@@ 5
…@@ 4
´ 4
à 4
í@@ 4
+@@ 4
’ 4
° 4
@@@ 4
`@@ 4
nu 4
du-@@ 4
apro@@ 4
›@@ 4
cap@@ 4
ã@@ 4
¼ 3
elec@@ 3
²@@ 3
œ@@ 3
¥ 3
act 3
cam 3
ç@@ 3
uri 3
acel@@ 3
™ 3
pun@@ 3
vre@@ 3
cur@@ 3
½@@ 3
dou@@ 3
à@@ 3
q 3
â@@ 3
‹@@ 3
^@@ 3
asta. 2
ul. 2
ici@@ 2
š@@ 2
ani. 2
mic@@ 2
  2
cu 2
♪@@ 2
prima 2
spec@@ 2
elor 2
cum@@ 2
cel 2
ea. 2
É@@ 2
ofer@@ 2
^ 2
direc@@ 2
acol@@ 2
@@ 2
cit@@ 2
` 2
„ 2
asta, 1
ć@@ 1
avea 1
¾ 1
dup@@ 1
bine, 1
comp@@ 1
foar@@ 1
care 1
ú@@ 1
* 1
eze 1
prin 1
á 1
³ 1
)@@ 1
ific@@ 1
© 1
Dar 1
aliz@@ 1
€ 1
iar 1
tre 1
® 1
ê@@ 1
‹ 1
@ 1
cum 1
sul 1
к@@ 1
ë@@ 1
£ 1
ā@@ 1
Ç@@ 1
-i 1
parte 1
ï@@ 1
tul 1
condu@@ 1
adev@@ 1
*@@ 1
， 1
timp@@ 1
î@@ 1
Nu 1
ø@@ 1
β 1
Ace@@ 1
