de 65076
a 53647
să 31214
în 30980
o 24590
i 24439
e 24421
ul 23602
c@@ 23366
care 23082
ă 21926
in@@ 21049
la 20838
că 20761
şi 20752
i@@ 20260
un 18742
, 17913
e@@ 17816
pe 16960
este 16456
. 15981
cu 15713
s@@ 15659
și 15084
am 15083
nu 14861
t@@ 14801
de@@ 14763
ar@@ 14605
mai 14444
din 14378
at 14366
ce 14271
o@@ 14264
at@@ 14232
pentru 14111
p@@ 13785
re@@ 13606
a@@ 13571
l@@ 12859
ic@@ 12854
b@@ 12598
al@@ 12581
or@@ 12456
an@@ 12365
ii 12204
ă@@ 12151
u@@ 12132
ca 12077
m@@ 11861
i, 11591
se 11513
e. 11315
ac@@ 11302
it@@ 11222
ţ@@ 11152
v@@ 11125
f@@ 11017
ă. 10935
ea 10814
ț@@ 10373
z@@ 10324
r@@ 10281
în@@ 10199
au 10016
i. 9999
un@@ 9892
n@@ 9854
st@@ 9588
ă, 9506
e, 9400
er@@ 9211
ele 9192
it 9106
te 8923
in 8765
ur@@ 8690
-- 8283
t 8279
te@@ 8199
g@@ 8182
im@@ 8106
are 8079
sunt 8075
C@@ 7889
u 7743
ş@@ 7672
ia 7591
en@@ 7584
con@@ 7505
cre@@ 7479
-@@ 7324
A@@ 7316
a. 7234
ar 7170
d@@ 7060
Şi 7055
ie 7045
a, 7040
ul@@ 6977
ţi 6955
sa 6950
di@@ 6929
ti@@ 6840
am@@ 6613
ap@@ 6603
el@@ 6564
ți 6538
S@@ 6339
tr@@ 6327
al 6256
fost 6083
to@@ 5976
ș@@ 5958
um@@ 5849
fi 5839
ie@@ 5824
si 5729
ma@@ 5684
le 5655
aţ@@ 5627
as@@ 5566
on@@ 5538
ile 5538
is@@ 5535
ec@@ 5526
: 5505
D@@ 5486
ol@@ 5470
pl@@ 5386
il@@ 5359
h@@ 5351
"@@ 5325
po@@ 5316
va 5287
despre 5279
ate 5274
pre@@ 5227
ei 5163
cum 5129
foarte 5093
s 5080
ăm 5058
Și 5053
ne 5046
et@@ 5006
ce@@ 4987
no@@ 4940
per@@ 4865
ne@@ 4840
ăr@@ 4806
M@@ 4773
ului 4728
asta 4707
sp@@ 4645
ad@@ 4621
aț@@ 4597
su@@ 4581
ut@@ 4558
pro@@ 4554
mul@@ 4502
ăt@@ 4498
sau 4451
? 4438
uri 4404
Dar 4382
ată 4372
dar 4361
area 4303
când 4297
cu@@ 4284
ale 4248
ent@@ 4238
co@@ 4233
lu@@ 4159
dacă 4146
l 4137
le@@ 4103
t. 4047
aj@@ 4041
ab@@ 4014
ex@@ 4003
es@@ 3972
mi@@ 3946
P@@ 3932
ilor 3931
par@@ 3922
du@@ 3921
acest 3914
ter@@ 3836
ig@@ 3820
vă 3819
E@@ 3814
ine 3806
gr@@ 3777
se@@ 3760
m 3738
cur@@ 3737
ch@@ 3682
au@@ 3665
me@@ 3649
-am 3640
ve@@ 3640
ast@@ 3639
c 3615
V@@ 3601
ro@@ 3569
om@@ 3568
ob@@ 3568
mă 3565
j@@ 3556
or 3534
ici@@ 3531
Nu 3525
B@@ 3493
ag@@ 3490
tre@@ 3466
car@@ 3432
şti@@ 3410
t, 3395
az@@ 3395
ân@@ 3380
iz@@ 3349
N@@ 3340
str@@ 3336
ai 3326
im 3282
sim@@ 3254
do@@ 3230
tul 3213
ib@@ 3206
min@@ 3202
era 3199
oar@@ 3185
ut 3172
ică 3149
fac@@ 3146
1@@ 3137
ră@@ 3089
Am 3082
fer@@ 3080
pr@@ 3075
av@@ 3054
num@@ 3054
af@@ 3043
ip@@ 3019
ist@@ 3012
aceste 3010
doar 2997
face 2989
această 2982
des@@ 2979
-a 2968
mo@@ 2968
for@@ 2967
io@@ 2953
d 2949
I@@ 2944
mar@@ 2943
em@@ 2935
pu@@ 2923
mult 2890
ceea 2885
spun@@ 2879
că@@ 2877
♫ 2864
da@@ 2859
cer@@ 2834
acest@@ 2811
T@@ 2798
bun@@ 2788
est@@ 2774
ant@@ 2771
din@@ 2754
pt@@ 2748
poate 2727
ic 2724
com@@ 2709
ir@@ 2708
ceva 2683
ide@@ 2681
trebuie 2680
cul@@ 2680
comp@@ 2679
dintre 2673
ci@@ 2671
vo@@ 2662
lucr@@ 2589
lum@@ 2570
em 2526
mer@@ 2497
u, 2496
În 2482
os@@ 2478
ii. 2473
cl@@ 2463
ori 2444
chiar 2441
F@@ 2430
rec@@ 2427
îm@@ 2416
itatea 2394
ica 2385
L@@ 2376
toate 2375
- 2368
vre@@ 2364
prin 2356
spec@@ 2350
putea 2343
ven@@ 2327
te. 2322
tă 2315
lo@@ 2310
te, 2310
ent 2305
fel 2285
x@@ 2285
prim@@ 2283
ști@@ 2281
ază 2281
ci 2280
ani 2275
ală 2266
eu 2266
ie. 2264
aţi 2257
cop@@ 2253
ând 2249
pot 2246
nu@@ 2235
zi@@ 2232
esc 2216
dat@@ 2213
tur@@ 2201
col@@ 2192
păr@@ 2186
ace@@ 2179
iun@@ 2177
p 2176
abil@@ 2165
ma 2153
op@@ 2143
oameni 2136
O@@ 2130
fie 2123
ii, 2121
H@@ 2118
or, 2115
noi 2112
us@@ 2111
acum 2108
vi@@ 2105
Iar 2102
ver@@ 2102
De 2093
folos@@ 2089
elor 2077
ite 2073
iar 2066
s-a 2062
u. 2055
avem 2051
ie, 2049
multe 2048
int@@ 2044
iv@@ 2042
să@@ 2041
fi@@ 2039
i-@@ 2034
dis@@ 2027
Si 2027
inter@@ 2020
and 2018
el 2018
." 2017
zi 2013
schimb@@ 2008
ge@@ 1987
R@@ 1986
voi 1974
mare 1973
difer@@ 1965
cal@@ 1958
proble@@ 1952
g 1950
G@@ 1945
or. 1945
apoi 1945
z 1943
unde 1938
putem 1937
.@@ 1933
ez@@ 1932
k@@ 1925
lui 1921
der@@ 1918
ice 1913
Este 1912
aş@@ 1911
ită 1906
ion@@ 1903
â@@ 1896
cât 1895
cr@@ 1891
itat@@ 1888
âr@@ 1887
iile 1886
an 1882
ează 1876
şte 1847
prin@@ 1843
at. 1842
vor 1840
ul. 1838
ata 1836
so@@ 1828
lucru 1810
orul 1807
tot 1804
is 1804
-i 1801
cred 1795
oamenii 1787
den@@ 1781
ţii 1774
vorb@@ 1770
într-un 1750
y@@ 1742
cel 1741
ită@@ 1740
Deci 1738
itate 1737
sc@@ 1733
ele@@ 1720
aici 1717
cele 1716
noastr@@ 1709
fac 1705
E 1704
rez@@ 1697
iei 1697
br@@ 1691
timp@@ 1687
r 1686
tin@@ 1680
ta 1674
fel@@ 1674
loc@@ 1670
şti 1669
dr@@ 1660
ici 1656
ați 1654
fiecare 1647
ing@@ 1645
alt@@ 1644
A 1639
mat@@ 1639
parte 1638
priv@@ 1622
2@@ 1618
făcut 1616
pă@@ 1613
fr@@ 1613
cap@@ 1611
urile 1611
timp 1608
pe@@ 1607
er 1602
există 1601
bin@@ 1600
î@@ 1600
ui 1597
gre@@ 1589
lucruri 1588
câ@@ 1583
ea, 1581
ten@@ 1579
una 1571
J@@ 1570
id@@ 1569
mân@@ 1568
întâmpl@@ 1557
tat@@ 1554
il 1551
ier@@ 1548
aceasta 1536
ul, 1530
gen@@ 1529
dată 1523
avea 1517
produ@@ 1508
fapt 1508
pute@@ 1507
dec@@ 1507
es 1506
cin@@ 1502
decât 1494
întreb@@ 1490
înce@@ 1478
Asta 1476
viz@@ 1469
bu@@ 1467
eg@@ 1467
ea. 1462
îl 1452
0@@ 1451
d, 1449
cel@@ 1446
puter@@ 1445
ort@@ 1444
după 1439
sol@@ 1436
reg@@ 1433
K@@ 1433
mi 1432
ti 1432
asta. 1431
" 1429
loc 1426
Dacă 1422
două 1419
fin@@ 1412
atunci 1411
într-o 1410
jo@@ 1405
are. 1403
ură 1403
ind 1401
aşa 1396
man@@ 1389
aș@@ 1388
uit@@ 1383
at, 1378
adevăr@@ 1375
tiv@@ 1374
acel@@ 1372
urm@@ 1372
În@@ 1370
U@@ 1369
facem 1368
cea 1365
bo@@ 1365
inţ@@ 1362
mod 1360
a? 1359
interes@@ 1356
dre@@ 1355
până 1349
oamen@@ 1349
Ei 1343
tra@@ 1338
y 1336
pun@@ 1336
lumea 1335
ări 1332
nic@@ 1329
aic@@ 1328
Un@@ 1319
să-@@ 1315
ului. 1315
n 1310
atât 1310
ţi@@ 1307
tehnolog@@ 1299
tic@@ 1297
me 1295
Aşa 1294
up@@ 1294
unul 1292
constru@@ 1277
imagin@@ 1276
ște 1274
nevoie 1265
mea 1264
vin@@ 1260
tă@@ 1259
spune 1258
proiec@@ 1256
alte 1256
tu@@ 1246
ţion@@ 1244
vor@@ 1242
5@@ 1242
dic@@ 1241
ții 1240
ant 1240
unui 1235
leg@@ 1235
auz@@ 1233
ef@@ 1233
stru@@ 1231
între@@ 1229
ăc@@ 1226
-o 1223
că, 1222
plan@@ 1214
ave@@ 1214
mil@@ 1212
igur@@ 1211
Pentru 1209
început 1208
cei 1208
bine, 1206
al. 1201
abil 1194
por@@ 1190
w@@ 1188
entul 1188
da 1185
Ce 1177
ei@@ 1176
sun@@ 1175
sur@@ 1174
ar, 1173
” 1170
vedea 1167
acesta 1166
'@@ 1165
sc 1165
scr@@ 1159
mom@@ 1158
prez@@ 1156
olog@@ 1156
avut 1154
tor 1148
exem@@ 1148
vede@@ 1147
cor@@ 1144
exist@@ 1143
Acesta 1140
cun@@ 1139
5 1133
ura 1132
vom 1132
amen@@ 1132
mic@@ 1130
sing@@ 1130
b 1125
func@@ 1124
ur 1123
4@@ 1119
plu@@ 1118
nici 1118
3@@ 1115
al, 1114
unei 1111
ască 1111
trebui 1104
iec@@ 1102
„@@ 1099
ară 1098
înţ@@ 1098
cum@@ 1096
Ac@@ 1095
fil@@ 1093
oare 1090
sin@@ 1088
dat 1087
sch@@ 1086
dur@@ 1080
spun 1079
ien@@ 1079
peste 1078
rel@@ 1076
ști 1075
Aceasta 1075
exper@@ 1074
Sunt 1073
imen@@ 1069
fapt, 1069
apro@@ 1069
serv@@ 1068
ot@@ 1067
îi 1066
medi@@ 1065
v 1064
aliz@@ 1063
enţ@@ 1063
ase@@ 1063
acol@@ 1061
Deci, 1059
Po@@ 1058
iul 1056
itu@@ 1056
căr@@ 1056
orii 1055
inț@@ 1053
enț@@ 1053
expl@@ 1051
ină 1048
iar@@ 1044
iu 1044
spus@@ 1040
c. 1039
asta, 1037
astr@@ 1037
O 1036
ces@@ 1035
spus 1034
trans@@ 1034
trei 1033
it. 1032
d. 1032
adu@@ 1032
are, 1030
lor 1027
așa 1025
o. 1024
fără 1024
tot@@ 1022
if@@ 1020
ţi, 1020
tre 1019
asemen@@ 1019
W@@ 1019
iune 1018
gă@@ 1017
ani, 1017
be@@ 1015
ze 1008
câteva 1005
ului, 999
To@@ 999
8@@ 998
comun@@ 998
unc@@ 998
plu 995
mu@@ 992
ase 990
spre 988
ung@@ 984
ire 980
prea 978
ni@@ 972
ani. 971
gener@@ 969
ăto@@ 967
acea 967
bine 965
TED 964
du-@@ 962
bi@@ 962
; 959
ăs@@ 958
og@@ 955
Ş@@ 955
poz@@ 954
suntem 952
fo@@ 951
Acum, 951
viaţ@@ 950
dezvol@@ 949
ajut@@ 945
ămân@@ 943
Pr@@ 941
acolo 939
aza 938
afl@@ 937
erau 937
6@@ 937
ic. 936
asupra 935
fă@@ 934
9@@ 934
propr@@ 933
vă@@ 931
men@@ 928
supr@@ 927
înt@@ 926
contr@@ 926
vreau 925
St@@ 925
In@@ 925
meu 924
sub@@ 922
mod@@ 919
ser@@ 918
ultim@@ 917
astfel 916
son@@ 913
gu@@ 911
puţ@@ 907
orice 907
vie@@ 907
sul 905
! 900
ban@@ 900
-au 900
ţie 899
tră@@ 898
deven@@ 896
s-@@ 896
organ@@ 896
punc@@ 894
ţia 893
19@@ 892
uns 891
publ@@ 891
tea 890
m. 889
Așa 889
anum@@ 887
dev@@ 885
lucrurile 885
țion@@ 884
it, 882
sistem@@ 882
prof@@ 881
lin@@ 879
ei. 878
rea 878
si@@ 877
import@@ 873
jur@@ 872
i? 871
prob@@ 870
cân@@ 869
ge 869
uri. 868
fem@@ 868
învă@@ 867
eze 865
mon@@ 864
ere 862
inc@@ 860
ech@@ 858
tip@@ 858
toată 857
nor@@ 856
ate, 856
destul 852
s. 851
altă 851
Tre@@ 850
aproape 850
caz@@ 847
0 847
ra@@ 845
descoper@@ 843
ş 842
... 842
ei, 841
7@@ 841
Ex@@ 840
Ch@@ 839
eri@@ 834
ate. 834
mele 832
asă 831
acel 831
uie 829
copi@@ 828
persoan@@ 828
prezent@@ 827
energ@@ 826
fap@@ 825
val@@ 821
dolar@@ 819
sen@@ 819
o, 817
asa 816
gem 816
Afr@@ 815
ane 813
re, 811
?" 811
ile. 810
dă 810
gân@@ 808
oarece 808
ine@@ 807
cam 806
m-am 805
alt 802
cit@@ 802
ific@@ 800
sta 800
îmi 799
iliz@@ 798
re. 796
milioane 795
sem@@ 794
înain@@ 794
iunea 793
atr@@ 793
seam@@ 791
tat 789
găs@@ 787
aţie 787
spir@@ 785
patr@@ 785
sal@@ 785
ij@@ 782
irea 780
prima 778
lan@@ 777
”@@ 776
ți, 776
econom@@ 774
înț@@ 773
tr-o 772
trebu@@ 771
vân@@ 771
,@@ 770
cineva 770
put@@ 770
uş@@ 770
ele. 769
intr@@ 767
s, 766
Când 765
amer@@ 764
ace 764
între 762
zon@@ 762
". 762
centr@@ 761
cat@@ 759
can@@ 759
Cum 758
tele 757
volu@@ 756
arăt@@ 755
ativ@@ 754
tem 754
Acum 752
ara 750
pi@@ 750
tro@@ 749
încă 749
aşi 749
ia, 746
act 746
plic@@ 745
încerc@@ 745
înseamnă 744
var@@ 744
viit@@ 744
ina 743
continu@@ 743
del@@ 742
dom@@ 741
inv@@ 740
cat 740
pet@@ 739
imb@@ 739
Ar@@ 739
oric@@ 738
vers@@ 738
Pu@@ 738
ic, 737
Se 737
ţă 736
imit@@ 735
cerc@@ 734
ută 732
bă@@ 732
dez@@ 732
Ast@@ 731
creier@@ 731
mun@@ 730
ran@@ 728
ente 728
nou@@ 728
oper@@ 726
imp@@ 725
ang@@ 723
amin@@ 721
vrea 721
besc 720
m, 720
realiz@@ 719
e: 719
nim@@ 718
ju@@ 717
Mul@@ 716
potr@@ 716
povest@@ 715
ție 715
ilor. 715
pare 714
mă@@ 713
frum@@ 712
Vă 710
gând@@ 710
as 709
cev@@ 708
uman@@ 706
Î@@ 706
10 706
măs@@ 705
Cred 702
Talk 700
00 700
Subtitles 699
Transcript: 699
direc@@ 699
lume 697
văzut 697
dif@@ 696
întâ@@ 695
ofer@@ 694
gândi@@ 694
Er@@ 693
uz@@ 693
e? 692
condu@@ 691
atele 691
sec@@ 690
căl@@ 688
an, 687
ția 686
ose@@ 686
tr-un 685
elec@@ 684
i-a 684
pier@@ 684
an. 682
pie@@ 682
ile, 681
niv@@ 681
De@@ 680
real@@ 680
bil@@ 680
sf@@ 678
um, 676
Un 675
ală. 675
istă 673
ării 673
ările 672
stru 672
nec@@ 672
ibil@@ 671
minun@@ 671
s-au 669
dor@@ 668
facă 668
numai 668
partea 668
tele@@ 668
a-@@ 667
âng@@ 666
mine 665
anim@@ 665
acele 665
pan@@ 664
poţi 663
hr@@ 660
dou@@ 660
motiv@@ 659
iţi 659
vest@@ 658
importan@@ 658
Av@@ 658
daca 658
viaț@@ 657
posibil@@ 657
ele, 657
informa@@ 656
ime 656
cut 655
ia. 654
Ș@@ 653
ub@@ 653
ativ 652
fur@@ 652
vedem 652
on 649
lung@@ 647
amil@@ 644
pus 644
ima@@ 643
met@@ 641
eleg@@ 641
tal@@ 635
ator@@ 633
iment@@ 632
gro@@ 632
ger@@ 631
La 631
k 630
natur@@ 629
% 626
ment@@ 625
2 622
fotograf@@ 619
pul@@ 616
tim@@ 616
stan@@ 614
ș 614
studi@@ 614
Al@@ 613
dar@@ 613
e-@@ 613
om 610
ind@@ 606
Mar@@ 605
dem 599
etr@@ 597
ale, 597
glo@@ 594
dere 592
polit@@ 590
tor@@ 587
ivers@@ 585
sum@@ 582
he@@ 582
.000 582
bal@@ 581
ja 579
istor@@ 577
An@@ 576
gan@@ 576
sist@@ 572
adev@@ 569
3 569
mit@@ 567
ǎ 567
ain@@ 565
fl@@ 564
id 563
bat@@ 557
Do@@ 554
pas@@ 554
eu@@ 552
ru@@ 552
och@@ 546
mag@@ 546
os. 540
apo@@ 538
mor@@ 537
20 537
est 527
50 524
stat@@ 521
um 519
ax@@ 519
ial@@ 517
und@@ 517
4 514
es, 514
en 513
gram@@ 511
Z@@ 510
graf@@ 508
făc@@ 506
tem@@ 506
nat@@ 505
Or@@ 504
flu@@ 498
os 497
lex@@ 497
ute 496
ah@@ 496
um. 488
Ace@@ 488
No@@ 487
fiz@@ 487
Amer@@ 485
and@@ 485
net@@ 481
form@@ 479
gin@@ 478
lic@@ 477
Indi@@ 476
itiv@@ 475
fon@@ 475
ans@@ 469
stu@@ 466
200@@ 464
Pro@@ 459
pol@@ 456
In 455
tel@@ 455
h 454
dustr@@ 450
8 447
j 446
6 445
imens@@ 445
ǎ@@ 442
mel@@ 440
începu@@ 439
Su@@ 439
ord@@ 436
bar@@ 434
ben@@ 431
Sp@@ 427
ac 426
bl@@ 422
ze@@ 419
1 418
Acest@@ 415
000 415
sa@@ 415
f 414
pos@@ 410
fol@@ 409
die@@ 409
", 408
Sun@@ 402
ug@@ 399
emo@@ 397
pt 396
ner@@ 395
30 395
într-@@ 395
20@@ 395
de, 391
Ne@@ 389
New 386
Re@@ 382
Aş@@ 379
7 378
100 377
Co@@ 376
ion 374
Mo@@ 372
Inter@@ 371
Le@@ 370
tit@@ 370
de. 369
TED@@ 367
treb@@ 367
tion@@ 365
Ro@@ 359
nevo@@ 358
ak@@ 357
ât 356
aca 351
astă 349
ber@@ 348
At@@ 346
00@@ 346
Lu@@ 345
vol@@ 343
x 342
ign@@ 340
acă 340
ach@@ 338
eva 332
ist 330
zu@@ 330
Yor@@ 330
y, 328
mes@@ 328
dest@@ 325
of@@ 324
ung 323
Aș@@ 323
Cre@@ 320
forma@@ 319
sat@@ 318
on, 317
rit@@ 316
ho@@ 316
st 315
eil@@ 311
h, 309
Chin@@ 306
mal@@ 305
Des@@ 299
ik@@ 297
întâm@@ 297
dup@@ 293
?@@ 290
ih@@ 287
man 286
Br@@ 286
san@@ 286
ati@@ 286
9 285
ulu@@ 285
perso@@ 282
[@@ 279
zut 278
iel@@ 274
ich@@ 273
ste 271
Par@@ 270
we@@ 269
ier 267
Au@@ 266
Y@@ 265
sel@@ 263
gl@@ 263
er, 261
t? 259
!@@ 258
foar@@ 251
ort 250
ã 250
Mon@@ 247
dig@@ 246
gle@@ 245
ţ 243
ill@@ 242
nă 241
tehn@@ 240
atunc@@ 239
mei@@ 236
er. 236
pa@@ 233
ade 228
ck@@ 228
ter 226
Pre@@ 226
– 226
' 225
mal 223
Com@@ 221
us 220
contin@@ 218
fas@@ 217
st, 216
] 215
anz@@ 211
se. 209
..@@ 205
ein@@ 203
ge. 200
ster@@ 200
age 197
mit 197
son 197
und 194
X@@ 194
So@@ 191
war@@ 191
las@@ 189
je@@ 189
Ok@@ 187
ț 186
Univers@@ 186
Ge@@ 186
se, 185
ens@@ 183
n, 183
zeu@@ 180
ape 180
der 179
ation@@ 177
Bo@@ 176
die 175
Ob@@ 173
erg@@ 171
Ma@@ 170
hal@@ 170
en, 170
Gr@@ 169
her@@ 168
oll@@ 167
men 164
onom@@ 164
/@@ 163
Per@@ 162
en. 162
rech@@ 160
frag@@ 159
ste@@ 159
ge, 159
Bu@@ 158
tier@@ 157
n. 156
sie 156
ir 155
Gen@@ 154
st. 154
tig@@ 153
ell@@ 153
%@@ 152
qu@@ 152
nis@@ 152
ână 151
gen 151
pre 151
all@@ 150
Se@@ 150
Ide@@ 148
es. 147
gel@@ 147
be 147
ick@@ 146
Nat@@ 146
spr@@ 144
ins 142
he 142
V 141
mus@@ 141
Proble@@ 137
un, 137
Rich@@ 136
ologie 134
Fr@@ 133
net 132
mir@@ 131
En@@ 130
For@@ 129
Min@@ 129
tr-@@ 128
N 127
entr@@ 127
gest@@ 126
tun@@ 125
“@@ 125
hei@@ 124
fie@@ 123
end@@ 121
enn@@ 119
Ă@@ 118
Reg@@ 117
ără 117
fan@@ 117
ã@@ 117
ioane 115
oare@@ 115
Vor@@ 115
Mat@@ 115
Me@@ 114
Ab@@ 113
bes@@ 113
Ph@@ 113
lau@@ 112
Sch@@ 112
I 110
hn@@ 109
zei@@ 109
wo@@ 108
Tr@@ 107
D 107
Bil@@ 105
fos@@ 105
C 105
lich@@ 105
Ber@@ 104
ig 104
ten 101
Was@@ 99
entru 99
hab@@ 99
Ein@@ 99
des 98
ist. 96
Gro@@ 96
ber 95
th@@ 95
bre@@ 95
w 94
câte@@ 92
Str@@ 90
les 90
S 89
che 86
bis@@ 85
Ger@@ 84
ann@@ 83
Stu@@ 83
T 82
ern@@ 82
tograf@@ 82
ohn@@ 81
Be@@ 81
wi@@ 81
ist, 79
coper@@ 76
as, 73
Pl@@ 73
ein 73
ble@@ 72
War@@ 72
Medi@@ 71
t: 71
all 71
ek@@ 70
:@@ 70
sem 69
ch 69
eh@@ 66
win@@ 66
We@@ 65
X 65
kl@@ 65
]@@ 65
Ver@@ 65
hin@@ 65
— 64
ph@@ 64
star@@ 63
neu@@ 62
Ţ@@ 62
hat@@ 62
q@@ 62
Ja@@ 61
Kar@@ 61
Fil@@ 60
enz@@ 60
ft 59
&@@ 59
ob 58
ill 58
Ant@@ 58
igen 56
lie@@ 56
her 55
ster 55
ler 55
B 54
Plan@@ 54
ung, 53
seamnă 51
asupr@@ 51
Fre@@ 51
gib@@ 51
Dec@@ 50
ung. 50
Ta@@ 50
hem@@ 50
ck 49
ab 48
;@@ 48
mach@@ 48
ass@@ 47
Kin@@ 47
P 47
Din@@ 47
Ț@@ 46
Tran@@ 45
Her@@ 45
lang@@ 45
rie@@ 45
ff@@ 44
te: 44
scrip@@ 43
M 42
versu@@ 41
Son@@ 41
î 41
Qu@@ 41
♫@@ 41
U 41
ss 40
Q@@ 40
ank@@ 39
fre@@ 39
K 38
hen 38
Kr@@ 37
Mill@@ 37
sam@@ 37
Met@@ 36
ander@@ 35
Wo@@ 35
den 35
R 35
lei@@ 34
Gl@@ 34
L 34
ts@@ 33
ein, 32
best@@ 31
wer@@ 31
iel 31
olar@@ 30
$@@ 30
/ 30
Tal@@ 30
asu@@ 29
Kon@@ 29
ich 29
G 29
Ko@@ 28
zur@@ 28
gen. 27
off@@ 27
ik 26
gen, 26
wel@@ 26
bei 26
eine 25
andel@@ 25
hir@@ 25
iem@@ 25
ann 25
Energ@@ 25
itz@@ 24
F 23
ts 23
von 23
nd 22
dern 22
Kl@@ 22
isch@@ 22
Sub@@ 22
ko@@ 21
Y 21
Mus@@ 20
ben 20
Die@@ 20
ss@@ 20
als 20
rank@@ 19
tz@@ 19
so 19
end 18
ten, 18
ige 17
ben. 17
under@@ 17
fe 17
W 16
Art 16
Men@@ 16
ch, 16
eil 16
wis@@ 16
eig@@ 16
Bei@@ 15
$ 15
imm@@ 15
nie 15
q 15
ten. 14
) 14
gar 14
wor@@ 14
hl@@ 14
H 14
ation 13
hat 13
Rau@@ 13
du 12
tes 12
bei@@ 12
en: 12
iff@@ 12
enn 12
sind 12
tion 12
wei@@ 12
schw@@ 11
gab@@ 11
bin 11
bau@@ 11
ach 11
ende 11
Mit@@ 11
ens 10
Techn@@ 10
sei@@ 10
weil 10
J 10
omm@@ 10
ges 10
aus@@ 10
Z 10
Zei@@ 10
Um@@ 9
yst@@ 9
Wis@@ 9
Gel@@ 9
â 9
½ 9
iger 9
ö@@ 9
+ 9
erz@@ 8
ern 8
elle 8
lich 8
♪ 8
kon@@ 7
Q 7
unk@@ 7
TE@@ 7
schie@@ 7
#@@ 7
en? 7
sen 7
¨@@ 7
+@@ 7
sten 7
kur@@ 7
kr@@ 7
nich@@ 6
so, 6
“ 6
ystem@@ 6
Nach@@ 6
ahl@@ 6
Schul@@ 6
wich@@ 6
den, 6
mir 6
etw@@ 6
sen, 5
Kre@@ 5
(@@ 5
* 5
’@@ 5
drei 5
leb@@ 5
ser 5
einer 5
ika 5
ahr@@ 5
hin 5
Proz@@ 5
auf@@ 5
@@@ 5
hr 5
tun 5
dies 5
ā@@ 5
`@@ 4
«@@ 4
unter@@ 4
aus 4
= 4
zum 4
… 4
Rei@@ 4
¨ 4
´@@ 4
wie@@ 4
schen 4
aus. 4
™ 4
’ 4
*@@ 4
Man 4
é@@ 4
zu 4
ñ@@ 4
–@@ 4
ün@@ 3
chen 3
»@@ 3
wir@@ 3
alles 3
ich, 3
hier@@ 3
sein, 3
„ 3
wen@@ 3
hau@@ 3
einz@@ 3
‘@@ 3
tet, 3
mein@@ 3
Wer@@ 3
ä@@ 3
zwei@@ 3
Wei@@ 3
…@@ 3
war. 3
Zu@@ 3
—@@ 2
sag@@ 2
neh@@ 2
etz@@ 2
ó@@ 2
inner@@ 2
kei@@ 2
verl@@ 2
sein@@ 2
Ş 2
Doll@@ 2
¾ 2
agen 2
geb@@ 2
ache 2
rer 2
Aus@@ 2
á 2
Wel@@ 2
=@@ 2
utz@@ 2
ken 2
pass@@ 2
É@@ 2
é 2
sein 2
ü@@ 2
cht 2
fahr@@ 2
den. 2
á@@ 2
ien 2
è@@ 2
@@ 2
€@@ 2
fen 2
nach@@ 2
à@@ 2
~ 2
das 2
war 2
wo 1
» 1
sen. 1
doch 1
[ 1
# 1
Das 1
einf@@ 1
Geb@@ 1
ses 1
heit 1
¥ 1
)@@ 1
Ich 1
habe 1
zen 1
tet 1
wur@@ 1
© 1
¼ 1
bis 1
½@@ 1
² 1
schn@@ 1
Es 1
tigen 1
ganz 1
ische 1
für 1
wird 1
weise 1
gesch@@ 1
ütz@@ 1
welche 1
durch 1
isch 1
einen 1
mensch@@ 1
neue 1
Wir@@ 1
ungen 1
mög@@ 1
ِ@@ 1
andere 1
sich@@ 1
ê@@ 1
Ding@@ 1
erst@@ 1
aten 1
Ȋ@@ 1
 1
à 1
kun@@ 1
pf@@ 1
® 1
rich@@ 1
unter 1
^@@ 1
fall@@ 1
auf 1
ç@@ 1
Ç@@ 1
bede@@ 1
ikan@@ 1
ï@@ 1
ön@@ 1
deck@@ 1
Â@@ 1
₂@@ 1
₂ 1
hat, 1
gut 1
£ 1
iert, 1
wie 1
schei@@ 1
war, 1
dass 1
lichen 1
